{
  "</s>": 0,
  "<unk>": 1,
  "<s>": 2,
  "\u2581\u6211": 3,
  "\u4e16\u754c": 4,
  "\u91cd\u751f": 5,
  "\u5f00\u5c40": 6,
  "\u7a7f\u8d8a": 7,
  "\u2581\u91cd\u751f": 8,
  "\u7cfb\u7edf": 9,
  "\u5f00\u59cb": 10,
  "\u7684\u6211": 11,
  "\u2581\u7a7f\u8d8a": 12,
  "\u672b\u4e16": 13,
  "\u2581\u6211\u7684": 14,
  "\u6211\u7684": 15,
  "\u4fee\u4ed9": 16,
  "\u6e38\u620f": 17,
  "\u6210\u4e3a": 18,
  "\u5feb\u7a7f": 19,
  "\u5c11\u5973": 20,
  "\u53cd\u6d3e": 21,
  "\u6210\u4e86": 22,
  "\u2581\u5927": 23,
  "\u2581\u795e": 24,
  "\u65e0\u654c": 25,
  "\u2581\u6211\u5728": 26,
  "\u2581\u5f00\u5c40": 27,
  "\u2581\u4ece": 28,
  "\u2581\u7a7f": 29,
  "\u65e0\u9650": 30,
  "\u2581\u672b\u4e16": 31,
  "\u5d29\u574f": 32,
  "\u5f02\u4e16\u754c": 33,
  "\u2581\u4e00": 34,
  "\u2581\u5168": 35,
  "\u2581\u5feb\u7a7f": 36,
  "\u5927\u4f6c": 37,
  "\u2581\u5929": 38,
  "\u751f\u6d3b": 39,
  "\u4e4b\u65c5": 40,
  "\u90fd\u5e02": 41,
  "\u65e5\u5e38": 42,
  "\u6700\u5f3a": 43,
  "\u600e\u4e48": 44,
  "\u2581\u91cd\u751f\u4e4b": 45,
  "\u4e0d\u662f": 46,
  "\u4ec0\u4e48": 47,
  "\u4eba\u751f": 48,
  "\u2581\u5728": 49,
  "\u89c9\u9192": 50,
  "\u672b\u65e5": 51,
  "\u5f02\u754c": 52,
  "\u6211\u662f": 53,
  "\u5c0f\u59d0": 54,
  "\u2581\u661f": 55,
  "\u2581\u8fd9": 56,
  "\u2581\u9b54": 57,
  "\u2581\u4eba": 58,
  "\u706b\u5f71": 59,
  "\u4e00\u4e2a": 60,
  "\u6211\u5728": 61,
  "\u2581\u88ab": 62,
  "\u604b\u7231": 63,
  "\u2581\u5973": 64,
  "\u2581\u4e0d": 65,
  "\u8bf8\u5929": 66,
  "\u539f\u795e": 67,
  "\u53d8\u6210": 68,
  "\u603b\u88c1": 69,
  "\u2581[": 70,
  "\u2581\u7efc": 71,
  "\u2581\u8d85": 72,
  "\u540e\u6211": 73,
  "\u62ef\u6551": 74,
  "\u53ea\u60f3": 75,
  "\u2581\u56db": 76,
  "\u2581\u90fd\u5e02": 77,
  "\u2581\u4e09": 78,
  "\u8f6c\u751f": 79,
  "\u5408\u9662": 80,
  "\u8001\u5a46": 81,
  "\u5929\u4e0b": 82,
  "\u2581\u4f60": 83,
  "\u76f4\u64ad": 84,
  "\u4e07\u754c": 85,
  "\u5e26\u7740": 86,
  "\u6c42\u751f": 87,
  "\u653b\u7565": 88,
  "\u2581\u7f51": 89,
  "\u2581\u5c0f": 90,
  "\u53ec\u5524": 91,
  "\u9006\u88ad": 92,
  "\u2581\u706b\u5f71": 93,
  "\u7a7a\u95f4": 94,
  "\u6d77\u8d3c": 95,
  "\u9b54\u6cd5": 96,
  "\u9a91\u58eb": 97,
  "\u2581\u7384": 98,
  "\u516c\u4e3b": 99,
  "\u5973\u4e3b": 100,
  "\u2581\u5d29\u574f": 101,
  "\u6b21\u5143": 102,
  "\u5973\u914d": 103,
  "\u2581\u56db\u5408\u9662": 104,
  "\u2581\u672b\u65e5": 105,
  "\u4e4b\u8def": 106,
  "\u2581\u539f\u795e": 107,
  "\u2581\u7a7f\u6210": 108,
  "\u7b2c\u4e00": 109,
  "\u75c5\u5a07": 110,
  "\u4e03\u96f6": 111,
  "\u2581\u65e0": 112,
  "\u2581\u4eba\u5728": 113,
  "\u6708\u5149": 114,
  "\u2581\u7075": 115,
  "\u6597\u7f57": 116,
  "\u5173\u4e8e": 117,
  "\u5f00\u59cb\u7684": 118,
  "\u6d2a\u8352": 119,
  "\u5192\u9669": 120,
  "\u2581\u5f53": 121,
  "\u70ae\u7070": 122,
  "\u2581\u4ed9": 123,
  "\u65b9\u821f": 124,
  "\u2581\u7a7f\u4e66": 125,
  "\u82f1\u96c4": 126,
  "\u6211\u6709": 127,
  "\u6821\u82b1": 128,
  "\u5a31\u4e50": 129,
  "\u2581\u5f02": 130,
  "\u9b54\u738b": 131,
  "\u8001\u516c": 132,
  "\u65f6\u4ee3": 133,
  "\u2581\u5173\u4e8e": 134,
  "\u75af\u4e86": 135,
  "\u4e0d\u60f3": 136,
  "\u6545\u4e8b": 137,
  "\u964d\u4e34": 138,
  "\u2581\u9ad8": 139,
  "\u5973\u53cb": 140,
  "\u4f20\u5947": 141,
  "\u7684\u4e16\u754c": 142,
  "\u2581\u65e0\u9650": 143,
  "\u7cbe\u7075": 144,
  "\u2581\u9f99": 145,
  "\u5c11\u5e74": 146,
  "\u767d\u6708\u5149": 147,
  "\u771f\u7684": 148,
  "\u2581\u7f51\u6e38": 149,
  "\u5343\u91d1": 150,
  "\u4e16\u754c\u7684": 151,
  "\u2581\u9ed1": 152,
  "\u2581\u7edd": 153,
  "\u91cc\u7684": 154,
  "\u5927\u4eba": 155,
  "\u2581\u8fd9\u4e2a": 156,
  "\u2581\u5168\u6c11": 157,
  "\u2581\u5feb\u7a7f\u4e4b": 158,
  "\u5973\u5e1d": 159,
  "\u52c7\u8005": 160,
  "\u4e3b\u89d2": 161,
  "\u2581\u6211\u662f": 162,
  "\u738b\u7237": 163,
  "\u2581\u6d77\u8d3c": 164,
  "\u56e2\u5ba0": 165,
  "\u2581\u91cd": 166,
  "\u2581\u91cd\u751f\u540e": 167,
  "\u5e7b\u60f3": 168,
  "\u6211\u80fd": 169,
  "\u8ba9\u6211": 170,
  "\u5f52\u6765": 171,
  "\u2581\u4e3a": 172,
  "\u5e74\u4ee3": 173,
  "\u81ea\u5df1": 174,
  "\u53d8\u8eab": 175,
  "\u2581\u7384\u5e7b": 176,
  "\u4f20\u8bf4": 177,
  "\u59b9\u59b9": 178,
  "\u2581\u660e": 179,
  "\u4eca\u5929": 180,
  "\u9006\u5929": 181,
  "\u4e2d\u7684": 182,
  "\u5d1b\u8d77": 183,
  "\u7537\u4e3b": 184,
  "\u8f6e\u56de": 185,
  "\u2581\u4e5d": 186,
  "**": 187,
  "\u5c31\u662f": 188,
  "\u8fdb\u5316": 189,
  "\u7684\u5c0f": 190,
  "\u2581\u8eab": 191,
  "\u2581\u4fee\u4ed9": 192,
  "\u5973\u795e": 193,
  "\u79cd\u7530": 194,
  "\u83b7\u5f97": 195,
  "\u6709\u70b9": 196,
  "\u2581\u8f6c\u751f": 197,
  "\u5a07\u59bb": 198,
  "\u5927\u9646": 199,
  "\u957f\u751f": 200,
  "\u7b7e\u5230": 201,
  "\u2581\u4e07": 202,
  "\u5e1d\u56fd": 203,
  "\u2581\u8be1": 204,
  "\u65c5\u884c": 205,
  "\u2581\u6d2a\u8352": 206,
  "\u65e5\u8bb0": 207,
  "\u5a5a\u540e": 208,
  "\u53e4\u4ee3": 209,
  "\u4eba\u7684": 210,
  "\u2581\u6b66": 211,
  "\u53ef\u80fd": 212,
  "\u662f\u6211": 213,
  "19": 214,
  "\u6ca1\u6709": 215,
  "\u4fee\u771f": 216,
  "\u590d\u82cf": 217,
  "\u6211\u6210\u4e86": 218,
  "\u2581\u7efc\u6f2b": 219,
  "\u5965\u7279": 220,
  "\u65f6\u7a7a": 221,
  "\u59d0\u59d0": 222,
  "\u672a\u6765": 223,
  "\u6a21\u62df": 224,
  "\u7269\u8bed": 225,
  "\u2581\u6597\u7f57": 226,
  "\u662f\u4e2a": 227,
  "\u4e0d\u4f1a": 228,
  "\u90a3\u4e9b": 229,
  "\u7f8e\u5c11\u5973": 230,
  "\u2581\u4e09\u56fd": 231,
  "\u5f71\u89c6": 232,
  "\u592a\u5b50": 233,
  "\u2581\u7231": 234,
  "\u8c6a\u95e8": 235,
  "\u6210\u795e": 236,
  "\u6076\u9b54": 237,
  "\u6211\u9760": 238,
  "\u2581\u8bf8\u5929": 239,
  "\u6765\u5230": 240,
  "\u2581\u5168\u7403": 241,
  "\u540e\u7684": 242,
  "\u897f\u6e38": 243,
  "\u751f\u5b58": 244,
  "\u4e0d\u8981": 245,
  "\u9752\u6625": 246,
  "\u5b87\u5b99": 247,
  "\u592b\u4eba": 248,
  "\u8fd9\u4e2a": 249,
  "\u2581\u6218": 250,
  "\u9886\u4e3b": 251,
  "\u5b66\u9662": 252,
  "\u559c\u6b22": 253,
  "\u2581\u6700\u5f3a": 254,
  "\u54b8\u9c7c": 255,
  "\u2581\u68a6": 256,
  "\u2581\u5251": 257,
  "\u2581\u8eab\u4e3a": 258,
  "\u517b\u6210": 259,
  "\u75af\u6279": 260,
  "\u7f8e\u4eba": 261,
  "\u2581\u5f02\u754c": 262,
  "\u53d8\u5f3a": 263,
  "\u2581\u6211\u6709": 264,
  "\u5b69\u5b50": 265,
  "\u8ba9\u4f60": 266,
  "00": 267,
  "\u7684\u65e5\u5e38": 268,
  "\u516b\u96f6": 269,
  "\u5f02\u80fd": 270,
  "\u6076\u6bd2": 271,
  "\u5979\u4eec": 272,
  "\u73a9\u5bb6": 273,
  "\u65a9\u795e": 274,
  "\u2581\u53cd\u6d3e": 275,
  "\u5a31\u4e50\u5708": 276,
  "\u4e4b\u540e": 277,
  "\u81f3\u5c0a": 278,
  "\u2581\u53d8\u6210": 279,
  "\u841d\u8389": 280,
  "\u2581\u5e26\u7740": 281,
  "\u6446\u70c2": 282,
  "\u90fd\u662f": 283,
  "\u2581\u6b7b": 284,
  "\u7687\u5e1d": 285,
  "\u2581\u7cfb\u7edf": 286,
  "\u5b9d\u53ef": 287,
  "\u5b88\u62a4": 288,
  "\u5b9d\u53ef\u68a6": 289,
  "\u2581\u548c": 290,
  "\u7adf\u7136": 291,
  "\u5c06\u519b": 292,
  "\u4e27\u5c38": 293,
  "\u6781\u54c1": 294,
  "\u76d7\u5893": 295,
  "\u6c5f\u6e56": 296,
  "\u79d1\u6280": 297,
  "\u4e4b\u6211": 298,
  "\u65e5\u65b9\u821f": 299,
  "\u738b\u5983": 300,
  "\u8ba1\u5212": 301,
  "\u4f60\u7684": 302,
  "\u80fd\u529b": 303,
  "\u2581\u5996": 304,
  "\u7efc\u6f2b": 305,
  "\u6218\u4e89": 306,
  "\u2581\u9b3c": 307,
  "\u590d\u4ec7": 308,
  "\u5fa1\u517d": 309,
  "\u4e09\u56fd": 310,
  "\u547d\u8fd0": 311,
  "\u5168\u5bb6": 312,
  "\u2581\u6210\u4e3a": 313,
  "\u2581\u7f51\u6e38\u4e4b": 314,
  "\u65e5\u5b50": 315,
  "\u2581\u7f8e": 316,
  "\u9752\u6885": 317,
  "\u8005\u7684": 318,
  "\u2581\u3010": 319,
  "\u4eba\u8ff7": 320,
  "\u5929\u8d4b": 321,
  "\u5982\u4f55": 322,
  "\u9b54\u5973": 323,
  "\u6551\u8d4e": 324,
  "\u2581\u7ea2": 325,
  "\u4e8c\u6b21\u5143": 326,
  "\u6cd5\u5e08": 327,
  "\u2581\u60ca": 328,
  "\u6765\u4e86": 329,
  "\u600e\u4e48\u529e": 330,
  "\u2581\u4e1c": 331,
  "\u5951\u7ea6": 332,
  "\u5927\u5e08": 333,
  "\u6211\u88ab": 334,
  "\u5973\u513f": 335,
  "\u98ce\u4e91": 336,
  "\u7537\u53cb": 337,
  "\u2581\u9ad8\u6b66": 338,
  "\u74e6\u7279": 339,
  "\u7ed1\u5b9a": 340,
  "\u2581\u7a7f\u8d8a\u4e4b": 341,
  "\u795e\u660e": 342,
  "\u63d0\u74e6\u7279": 343,
  "\u65c5\u9014": 344,
  "\u9996\u5bcc": 345,
  "\u2581\u6700": 346,
  "\u4e00\u8d77": 347,
  "\u5730\u7403": 348,
  "\u540c\u4eba": 349,
  "\u53ea\u662f": 350,
  "\u2581\u79bb": 351,
  "\u4ef6\u4e8b": 352,
  "\u602a\u8c08": 353,
  "\u2581\u8d85\u7ea7": 354,
  "\u9009\u62e9": 355,
  "\u738b\u8005": 356,
  "\u95ee\u9898": 357,
  "\u6e23\u7537": 358,
  "\u7af9\u9a6c": 359,
  "\u2581\u65b0": 360,
  "\u5148\u751f": 361,
  "\u4eec\u7684": 362,
  "\u2581\u5047": 363,
  "\u5927\u5c0f\u59d0": 364,
  "\u4e0a\u4e86": 365,
  "\u7adf\u662f": 366,
  "\u2581\u53d8\u8eab": 367,
  "\u2581\u6e38\u620f": 368,
  "\u2581\u5f02\u4e16\u754c": 369,
  "\u2581\u767d": 370,
  "\u5947\u5999": 371,
  "\u6050\u6016": 372,
  "\u54e5\u54e5": 373,
  "\u53ef\u4ee5": 374,
  "\u6218\u795e": 375,
  "\u5c0f\u8bf4": 376,
  "\u5dc5\u5cf0": 377,
  "\u65e0\u654c\u4e86": 378,
  "\u6551\u4e16": 379,
  "\u6740\u75af\u4e86": 380,
  "\u7eaa\u5143": 381,
  "\u6765\u81ea": 382,
  "\u2581\u4e2d": 383,
  "\u5c45\u7136": 384,
  "\u4e4b\u795e": 385,
  "\u53d8\u6210\u4e86": 386,
  "\u5f02\u4e16": 387,
  "\u60f3\u8981": 388,
  "\u4e07\u4eba\u8ff7": 389,
  "\u2581\u8840": 390,
  "\u8fd9\u4ef6\u4e8b": 391,
  "\u2581\u5723": 392,
  "\u2581\u65e0\u654c": 393,
  "\u4e0d\u53ef\u80fd": 394,
  "\u62e5\u6709": 395,
  "\u5230\u4e86": 396,
  "\u8179\u9ed1": 397,
  "\u66ff\u8eab": 398,
  "\u2581\u5173\u4e8e\u6211": 399,
  "\u2581\u5e9f": 400,
  "\u6253\u9020": 401,
  "\u6821\u56ed": 402,
  "\u6cf0\u62c9": 403,
  "\u4fee\u70bc": 404,
  "\u2581\u56fd": 405,
  "\u2581\u76d7\u5893": 406,
  "\u6307\u5357": 407,
  "\u2581\u4e0e": 408,
  "\u2581\u6697": 409,
  "\u4e4b\u738b": 410,
  "\u6df7\u6c8c": 411,
  "\u2581\u6211\u548c": 412,
  "\u2581\u5341": 413,
  "\u670b\u53cb": 414,
  "\u2581\u65a9\u795e": 415,
  "\u4fee\u7f57": 416,
  "\u5b50\u7684": 417,
  "\u5168\u7403": 418,
  "\u4e4b\u4e0b": 419,
  "\u7f8e\u5973": 420,
  "\u661f\u9645": 421,
  "\u4eba\u7c7b": 422,
  "\u5347\u7ea7": 423,
  "\u4f60\u4eec": 424,
  "\u8d85\u7ea7": 425,
  "\u9ed1\u5316": 426,
  "\u2581\u771f": 427,
  "\u2581\u4ed6": 428,
  "\u8054\u76df": 429,
  "\u6bcf\u5929": 430,
  "\u56de\u5bb6": 431,
  "\u804a\u5929": 432,
  "\u5d29\u94c1": 433,
  "\u6587\u660e": 434,
  "\u73b0\u4ee3": 435,
  "\u2581\u4e16\u754c": 436,
  "\u7537\u795e": 437,
  "\u8214\u72d7": 438,
  "\u4e4b\u4e3b": 439,
  "\u62ef\u6551\u4e16\u754c": 440,
  "\u795e\u8bdd": 441,
  "\u2581\u661f\u9645": 442,
  "\u73b0\u5b9e": 443,
  "\u5c11\u7237": 444,
  "\u2581\u98ce": 445,
  "\u2581\u7efc\u5f71\u89c6": 446,
  "\u75af\u72c2": 447,
  "\u5b9d\u8d1d": 448,
  "\u541e\u566c": 449,
  "\u2581\u76f4\u64ad": 450,
  "\u65f6\u95f4": 451,
  "\u79d1\u5b66": 452,
  "\u6ee1\u7ea7": 453,
  "\u666e\u901a": 454,
  "\u2581\u522b": 455,
  "\u56de\u5230": 456,
  "\u5438\u8840": 457,
  "\u2581\u53cc": 458,
  "\u2581\u9b54\u6cd5": 459,
  "\u540e\u6094": 460,
  "\u2581\u300a": 461,
  "\u2581\u7cbe\u7075": 462,
  "\u5929\u4f7f": 463,
  "\u5fc3\u58f0": 464,
  "\u6f2b\u5a01": 465,
  "\u4e5f\u8981": 466,
  "\u5e08\u5c0a": 467,
  "\u89c4\u5219": 468,
  "\u9707\u60ca": 469,
  "\u6211\u4e0d": 470,
  "\u5bb6\u7684": 471,
  "\u540e\u5bab": 472,
  "\u9762\u9a91\u58eb": 473,
  "\u2581\u7ec8": 474,
  "\u626e\u6f14": 475,
  "\u9634\u9633": 476,
  "\u90aa\u795e": 477,
  "\u2581\u4e03\u96f6": 478,
  "\u67ef\u5357": 479,
  "\u5bbf\u4e3b": 480,
  "\u2581\u67d0": 481,
  "\u53ef\u7231": 482,
  "\u9738\u603b": 483,
  "\u5343\u5e74": 484,
  "\u5973\u738b": 485,
  "\u5ae1\u5973": 486,
  "\u6c14\u590d\u82cf": 487,
  "\u2581\u5927\u5510": 488,
  "\u2581\u5927\u660e": 489,
  "\u88ab\u8feb": 490,
  "\u2581\u8be1\u5f02": 491,
  "\u2581\u795e\u8c6a": 492,
  "\u2581\u8001": 493,
  "\u7537\u4eba": 494,
  "\u2581\u5979": 495,
  "\u2581\u6e05": 496,
  "\u2581\u5c71": 497,
  "\u5bb6\u65cf": 498,
  "\u6210\u4e3a\u4e86": 499,
  "\u2581\u519c": 500,
  "\u7ee7\u627f": 501,
  "\u8fd9\u4e48": 502,
  "\u2581\u4e07\u754c": 503,
  "SS": 504,
  "\u2581\u8c01": 505,
  "\u6211\u8981": 506,
  "\u2581\u8ba9\u4f60": 507,
  "\u2581\u7b2c": 508,
  "\u4e0b\u7684": 509,
  "\u65f6\u5149": 510,
  "\u2581\u660e\u65e5\u65b9\u821f": 511,
  "\u5267\u672c": 512,
  "\u6b66\u795e": 513,
  "\u6361\u5230": 514,
  "\u730e\u4eba": 515,
  "\u9a6c\u7532": 516,
  "\u2581\u592a": 517,
  "\u804a\u5929\u7fa4": 518,
  "\u592b\u541b": 519,
  "\u2581\u6c38": 520,
  "\u795e\u7ea7": 521,
  "\u5165\u4fb5": 522,
  "\u7269\u8d44": 523,
  "\u8c08\u604b\u7231": 524,
  "\u5b97\u95e8": 525,
  "\u8be1\u5f02": 526,
  "\u6b63\u5e38": 527,
  "\u2581\u7a7f\u8d8a\u5230": 528,
  "\u4e4b\u5b50": 529,
  "\u2581\u9752": 530,
  "\u53ea\u6709": 531,
  "\u900d\u9065": 532,
  "\u5965\u7279\u66fc": 533,
  "\u2581\u9006": 534,
  "\u7ed9\u6211": 535,
  "\u6b7b\u540e": 536,
  "\u5c01\u795e": 537,
  "\u4fee\u4ed9\u754c": 538,
  "\u52aa\u529b": 539,
  "\u4ebf\u4e07": 540,
  "\u5f71\u5e1d": 541,
  "\u7684\u65e5\u5b50": 542,
  "\u7684\u6545\u4e8b": 543,
  "\u2581\u82b1": 544,
  "\u7231\u60c5": 545,
  "\u7a7f\u4e66": 546,
  "\u95fa\u871c": 547,
  "\u91cd\u751f\u4e86": 548,
  "\u2581\u6211\u771f": 549,
  "\u2581\u90a3": 550,
  "\u4e00\u53ea": 551,
  "\u2581\u897f\u6e38": 552,
  "\u4e00\u5207": 553,
  "\u4e71\u4e16": 554,
  "\u7231\u4e0a": 555,
  "\u5927\u5e1d": 556,
  "\u2581\u706b\u5f71\u4e4b": 557,
  "\u6740\u624b": 558,
  "\u6280\u80fd": 559,
  "\u7687\u540e": 560,
  "\u4eba\u95f4": 561,
  "\u2581\u5f02\u4e16": 562,
  "\u2581\u6709": 563,
  "\u2581\u6211\u5bb6": 564,
  "\u62d2\u7edd": 565,
  "\u795e\u8c6a": 566,
  "\u2581\u6df1": 567,
  "\u5251\u4ed9": 568,
  "\u5929\u9053": 569,
  "\u2581\u5931": 570,
  "\u7a7f\u6210": 571,
  "\u9876\u6d41": 572,
  "\u6253\u5de5": 573,
  "\u4e0d\u80fd": 574,
  "\u5341\u5e74": 575,
  "\u2581\u5fc3": 576,
  "\u6211\u4e3a": 577,
  "\u5e78\u798f": 578,
  "\u9ad8\u624b": 579,
  "\u6c42\u6211": 580,
  "\u4fa6\u63a2": 581,
  "\u2581\u5982": 582,
  "\u672a\u5a5a": 583,
  "\u624b\u518c": 584,
  "\u5b66\u751f": 585,
  "99": 586,
  "\u5973\u4eba": 587,
  "\u7cbe\u795e": 588,
  "\u5e73\u51e1": 589,
  "\u738b\u7684": 590,
  "\u4e0a\u5929": 591,
  "\u2581\u91d1": 592,
  "\u2581\u9053": 593,
  "\u5f00\u6302": 594,
  "\u795e\u533b": 595,
  "\u77e5\u9053": 596,
  "\u2581\u4e03": 597,
  "\u6211\u4eec": 598,
  "\u7684\u5947\u5999": 599,
  "\u5f81\u670d": 600,
  "\u5206\u624b": 601,
  "\u5144\u5f1f": 602,
  "\u79bb\u5a5a": 603,
  "\u5927\u660e": 604,
  "\u2581\u8d85\u795e": 605,
  "\u2581\u5a31\u4e50": 606,
  "\u8230\u957f": 607,
  "\u9738\u9053": 608,
  "\u7cd9\u6c49": 609,
  "\u8bfb\u5fc3": 610,
  "\u2581\u8d5b": 611,
  "\u2581\u53e4": 612,
  "\u2581\u5730": 613,
  "\u4e0d\u6b7b": 614,
  "\u6076\u6bd2\u5973\u914d": 615,
  "\u5929\u707e": 616,
  "\u6211\u4e00": 617,
  "\u66dd\u5149": 618,
  "\u5f00\u5c40\u83b7\u5f97": 619,
  "\u7a7f\u8d8a\u5230": 620,
  "\u5973\u5b69": 621,
  "\u4e0d\u597d": 622,
  "\u4e3b\u5bb0": 623,
  "\u5fc3\u5c16": 624,
  "\u95ea\u5a5a": 625,
  "\u4e0a\u7684": 626,
  "\u51e1\u4eba": 627,
  "\u6765\u7684": 628,
  "\u90a3\u4e9b\u5e74": 629,
  "\u91cd\u751f\u540e": 630,
  "\u2581\u5d29\u94c1": 631,
  "?!": 632,
  "\u6210\u4ed9": 633,
  "\u5b8c\u7f8e": 634,
  "\u5f1f\u5f1f": 635,
  "\u2581\u539f": 636,
  "\u5929\u624d": 637,
  "\u8363\u8000": 638,
  "\u8def\u4eba": 639,
  "\u795e\u7684": 640,
  "\u5ba0\u59bb": 641,
  "\u59bb\u5b50": 642,
  "\u6211\u771f": 643,
  "\u2581\u91cd\u56de": 644,
  "\u517d\u4e16": 645,
  "\u53d1\u73b0": 646,
  "\u2581\u5e1d": 647,
  "\u4f46\u662f": 648,
  "\u7ea6\u6218": 649,
  "\u504f\u6267": 650,
  "\u5e08\u59b9": 651,
  "\u4e4b\u6211\u662f": 652,
  "\u2581\u4e0a": 653,
  "\u2581\u4e94": 654,
  "\u804c\u4e1a": 655,
  "\u9ad8\u51b7": 656,
  "\u6211\u548c": 657,
  "\u2581\u4e91": 658,
  "\u2581\u82f1\u96c4": 659,
  "\u7684\u5f02\u4e16\u754c": 660,
  "\u2581\u6211\u4e0e": 661,
  "\u7684\u4e00": 662,
  "\u2581\u4e3a\u4e86": 663,
  "\u7684\u4eba": 664,
  "\u2581\u540d": 665,
  "\u6728\u53f6": 666,
  "HP": 667,
  "\u521b\u4e16": 668,
  "\u8eba\u5e73": 669,
  "\u2581\u7075\u6c14\u590d\u82cf": 670,
  "\u5979\u7684": 671,
  "\u2581\u672b\u4e16\u4e4b": 672,
  "\u2581\u5b9d\u53ef\u68a6": 673,
  "\u2581\u957f": 674,
  "\u2581\u840c": 675,
  "\u738b\u4e4b": 676,
  "\u2581\u8bf7": 677,
  "\u5438\u8840\u9b3c": 678,
  "\u6b63\u7ecf": 679,
  "\u53eb\u6211": 680,
  "\u2581\u751f": 681,
  "\u602a\u7269": 682,
  "\u81f4\u5bcc": 683,
  "..": 684,
  "\u2581\u6597": 685,
  "\u82cd\u7a79": 686,
  "\u6a21\u62df\u5668": 687,
  "\u4f4d\u9762": 688,
  "\u94c1\u9053": 689,
  "\u4e07\u7269": 690,
  "\u5ac1\u7ed9": 691,
  "\u2581\u8352": 692,
  "\u5b66\u9738": 693,
  "\u50b2\u5a07": 694,
  "\u534e\u590f": 695,
  "\u2581\u5e7b\u60f3": 696,
  "20": 697,
  "\u4e00\u6837": 698,
  "\u9ed1\u6697": 699,
  "\u91cd\u751f\u4e4b": 700,
  "\u65e0\u53cc": 701,
  "\u2581\u4f5c": 702,
  "\u5168\u80fd": 703,
  "\u2581\u6d77": 704,
  "\u8001\u5e08": 705,
  "\u2581\u6781": 706,
  "\u79d8\u5bc6": 707,
  "\u533b\u751f": 708,
  "\u7eb5\u6a2a": 709,
  "\u2581\u90fd": 710,
  "\u2581\u9b42": 711,
  "\u9047\u89c1": 712,
  "\u662f\u6211\u7684": 713,
  "\u5723\u5973": 714,
  "\u2581\u7a7f\u8d8a\u6210": 715,
  "\u2581\u7834": 716,
  "\u603b\u88c1\u7684": 717,
  "\u2581\u591c": 718,
  "\u624b\u6307": 719,
  "\u4fee\u7f57\u573a": 720,
  "\u95fb\u5f55": 721,
  "\u2581\u6587": 722,
  "\u7a79\u94c1\u9053": 723,
  "\u6551\u4e16\u4e3b": 724,
  "\u6b7b\u4ea1": 725,
  "\u6240\u6709": 726,
  "\u2581\u6708": 727,
  "\u2581\u7279": 728,
  "\u8fd8\u662f": 729,
  "\u66b4\u541b": 730,
  "\u5f92\u5f1f": 731,
  "\u5929\u547d": 732,
  "\u2581\u5973\u5c0a": 733,
  "\u9b54\u6cd5\u5c11\u5973": 734,
  "\u970d\u683c": 735,
  "\u2581\u6781\u54c1": 736,
  "\u2581\u524d": 737,
  "\u4e0d\u5bf9": 738,
  "\u2581\u8bba": 739,
  "\u5f00\u542f": 740,
  "\u5386\u53f2": 741,
  "\u2581\u7edd\u4e16": 742,
  "\u4ebf\u70b9": 743,
  "\u7b14\u8bb0": 744,
  "\u2581\u957f\u751f": 745,
  "\u4e0b\u5c71": 746,
  "\u2581\u673a": 747,
  "\u4e0b\u53bb": 748,
  "\u9003\u8352": 749,
  "\u2581\u4e00\u4e2a": 750,
  "\u2581\u5fa1\u517d": 751,
  "\u8eab\u4efd": 752,
  "\u878d\u5408": 753,
  "!!": 754,
  "\u513f\u5b50": 755,
  "\u5988\u5988": 756,
  "\u5b87\u667a": 757,
  "\u2581\u865a": 758,
  "\u7ed3\u5a5a": 759,
  "\u5b87\u667a\u6ce2": 760,
  "\u2581\u963f": 761,
  "\u2581\u6211\u80fd": 762,
  "\u7684\u751f\u6d3b": 763,
  "\u2581\u6211\u771f\u7684": 764,
  "\u5267\u60c5": 765,
  "\u2581\u6211\u9760": 766,
  "\u2581\u5947": 767,
  "\u72ec\u5ba0": 768,
  "\u970d\u683c\u6c83": 769,
  "\u4ed6\u7684": 770,
  "\u4eca\u5929\u4e5f": 771,
  "\u7edd\u4e16": 772,
  "\u8230\u5a18": 773,
  "\u50f5\u5c38": 774,
  "\u521b\u9020": 775,
  "\u2581\u767e": 776,
  "\u76f4\u63a5": 777,
  "\u4e3b\u795e": 778,
  "\u600e\u4e48\u4e86": 779,
  "\u4e3b\u64ad": 780,
  "\u8d58\u5a7f": 781,
  "\u5f00\u5c40\u88ab": 782,
  "\u9876\u7ea7": 783,
  "\u89c4\u5219\u602a\u8c08": 784,
  "\u7eff\u8336": 785,
  "\u9ad8\u6b66": 786,
  "\u2581HP": 787,
  "\u66b4\u5bcc": 788,
  "\u2581\u516d": 789,
  "\u2581\u6d41": 790,
  "\u6c11\u56fd": 791,
  "\u5976\u7238": 792,
  "\u7f8e\u98df": 793,
  "\u8001\u677f": 794,
  "\u2581\u90aa": 795,
  "\u6210\u957f": 796,
  "\u89d2\u8272": 797,
  "\u2581\u7a7f\u8d8a\u540e": 798,
  "\u5bf9\u8c61": 799,
  "\u2581\u5927\u79e6": 800,
  "\u6307\u6325": 801,
  "\u2581\u5343": 802,
  "\u8bb0\u5fc6": 803,
  "\u2581\u81ea": 804,
  "\u6539\u53d8": 805,
  "\u7684\u6211\u88ab": 806,
  "\u2581\u5149": 807,
  "\u2581\u738b": 808,
  "\u2581\u795e\u7ea7": 809,
  "\u4e07\u5e74": 810,
  "\u91d1\u624b\u6307": 811,
  "\u2581\u72d0": 812,
  "\u8001\u7956": 813,
  "\u98de\u5347": 814,
  "\u2581\u5c11\u5973": 815,
  "\u2581\u8ff7": 816,
  "\u4e0a\u95e8": 817,
  "\u5168\u662f": 818,
  "\u5973\u4ec6": 819,
  "\u4efb\u52a1": 820,
  "\u8ffd\u59bb": 821,
  "\u90fd\u5728": 822,
  "\u2581\u51b0": 823,
  "\u6709\u4e2a": 824,
  "\u2581\u5e7b": 825,
  "\u5947\u5b9d\u8d1d": 826,
  "\u2581\u79bb\u5a5a\u540e": 827,
  "\u2581\u672c": 828,
  "\u5e08\u59d0": 829,
  "\u2581\u90fd\u5e02\u4e4b": 830,
  "\u661f\u7a7a": 831,
  "\u2581\u7a7f\u4e66\u540e": 832,
  "\u2581\u4e8c": 833,
  "\u2581\u533b": 834,
  "\u795e\u4e4b": 835,
  "\u2581\u56fd\u8fd0": 836,
  "\u2581\u6211\u4eec": 837,
  "\u4e00\u5ea7": 838,
  "\u2581\u6597\u7f57\u4e4b": 839,
  "\u540e\u6094\u4e86": 840,
  "\u2581\u4ee5": 841,
  "\u6551\u547d": 842,
  "\u81ea\u6211": 843,
  "\u903c\u6211": 844,
  "****": 845,
  "\u5a18\u5b50": 846,
  "\u78a7\u84dd": 847,
  "\u4e86\u4e2a": 848,
  "\u4eba\u5728": 849,
  "\u6bc1\u706d": 850,
  "\u5fc3\u5c16\u5ba0": 851,
  "\u2581\u6076": 852,
  "\u641e\u4e8b": 853,
  "\u6c14\u8fd0": 854,
  "\u2581\u76f8": 855,
  "\u2581\u5965\u7279": 856,
  "\u5ba0\u4e0a\u5929": 857,
  "\u9519\u4e86": 858,
  "\u73ab\u7470": 859,
  "\u2581\u518d": 860,
  "\u661f\u8fb0": 861,
  "\u5076\u50cf": 862,
  "\u90a3\u4e2a": 863,
  "\u5973\u751f": 864,
  "\u526f\u672c": 865,
  "\u2581\u60c5": 866,
  "\u2581\u51e4": 867,
  "\u4e16\u7eaa": 868,
  "\u6b66\u4fa0": 869,
  "\u516c\u53f8": 870,
  "\u2581\u4ec0\u4e48": 871,
  "\u5931\u8d25": 872,
  "\u4ed9\u5b50": 873,
  "\u624d\u662f": 874,
  "\u5ab3\u5987": 875,
  "\u5927\u53cd\u6d3e": 876,
  "\u6211\u5bb6": 877,
  "\u5c31\u80fd": 878,
  "\u83b2\u82b1": 879,
  "\u7a7f\u8d8a\u8005": 880,
  "\u5728\u7ebf": 881,
  "\u2581\u6df7": 882,
  "\u5f3a\u5236": 883,
  "\u2581\u6f2b\u5a01": 884,
  "\u6307\u6325\u5b98": 885,
  "\u2581\u9000": 886,
  "\u5916\u5356": 887,
  "\u6bbf\u4e0b": 888,
  "\u2581\u53f6": 889,
  "\u7231\u4f60": 890,
  "\u5047\u9762\u9a91\u58eb": 891,
  "\u5973\u7684": 892,
  "\u660e\u661f": 893,
  "\u2581(": 894,
  "\u5408\u7406": 895,
  "\u2581\u4e00\u4eba": 896,
  "\u6b22\u8fce": 897,
  "\u94e0\u7532": 898,
  "\u2581\u76db": 899,
  "\u5175\u738b": 900,
  "\u524d\u592b": 901,
  "\u9b54\u795e": 902,
  "\u6709\u95ee\u9898": 903,
  "\u6c99\u96d5": 904,
  "\u90a3\u4e9b\u4e8b": 905,
  "\u2581\u72c2": 906,
  "\u2581\u897f": 907,
  "\u52a0\u5165": 908,
  "\u4e86\u6211": 909,
  "\u597d\u7684": 910,
  "\u2581\u5c11\u5e74": 911,
  "\u53cd\u624b": 912,
  "\u5e73\u884c": 913,
  "\u4e0d\u8d77": 914,
  "\u604b\u7231\u8111": 915,
  "\u2581\u6297": 916,
  "\u5916\u6302": 917,
  "\u5b66\u56ed": 918,
  "\u5c0f\u5fc3": 919,
  "\u5e55\u540e": 920,
  "\u6218\u58eb": 921,
  "\u5168\u7f51": 922,
  "\u4e89\u9738": 923,
  "\u9ece\u660e": 924,
  "\u2581\u738b\u8005": 925,
  "\u2581\u8c6a\u95e8": 926,
  "\u5c11\u5973\u7684": 927,
  "\u5b58\u5728": 928,
  "\u79f0\u9738": 929,
  "\u4e16\u5b50": 930,
  "\u6211\u6210": 931,
  "\u2581\u6211\u88ab": 932,
  "\u7535\u5f71": 933,
  "\u8f6c\u804c": 934,
  "\u503e\u57ce": 935,
  "\u9ad8\u4e2d": 936,
  "\u2581\u9006\u5929": 937,
  "\u6b7b\u795e": 938,
  "\u519b\u5b98": 939,
  "\u2581\u6740": 940,
  "\u2581\u975e": 941,
  "\u4ed9\u5e1d": 942,
  "\u7687\u5b50": 943,
  "\u2581\u9b54\u738b": 944,
  "\u2581\u661f\u7a79\u94c1\u9053": 945,
  "\u5bf9\u5934": 946,
  "\u7981\u6b32": 947,
  "\u2581\u8f6e\u56de": 948,
  "\u2581\u521a": 949,
  "\u2581\u5bb6": 950,
  "\u6478\u9c7c": 951,
  "\u8eab\u4f53": 952,
  "\u767e\u5e74": 953,
  "\u4e0d\u4f4f": 954,
  "\u767e\u4e07": 955,
  "\u6444\u653f": 956,
  "\u2581\u56de\u5230": 957,
  "\u6df1\u6e0a": 958,
  "\u2581\u51b7": 959,
  "\u5973\u5b69\u5b50": 960,
  "\u4e1c\u4eac": 961,
  "\u7537\u914d": 962,
  "\u7cbe\u795e\u75c5": 963,
  "\u6539\u547d": 964,
  "\u6cd5\u5219": 965,
  "\u7684\u65b0": 966,
  "\u5927\u5510": 967,
  "\u4ea1\u7075": 968,
  "\u2581\u5f02\u80fd": 969,
  "\u2581\u89c9\u9192": 970,
  "\u6c38\u6052": 971,
  "\u5a46\u5a46": 972,
  "\u7684\u6211\u5728": 973,
  "\u4e0d\u592a": 974,
  "\u4e0d\u8fc7": 975,
  "\u4e3a\u4e86": 976,
  "\u2581\u516b\u96f6": 977,
  "\u2581\u91cd\u751f\u540e\u6211": 978,
  "\u5ba0\u7269": 979,
  "\u5e9f\u67f4": 980,
  "\u77e5\u9752": 981,
  "\u578b\u6708": 982,
  "\u5c5e\u6027": 983,
  "\u5f00\u5c40\u89c9\u9192": 984,
  "\u523a\u5ba2": 985,
  "\u672a\u5a5a\u59bb": 986,
  "\u8fd9\u6837": 987,
  "\u5bf9\u6211": 988,
  "\u9b45\u9b54": 989,
  "\u4fee\u884c": 990,
  "\u52a8\u6f2b": 991,
  "\u2581\u67ef\u5357": 992,
  "\u6ca1\u60f3": 993,
  "\u4e00\u70b9": 994,
  "\u4e4b\u4e0a": 995,
  "\u9053\u58eb": 996,
  "\u2581\u53f2": 997,
  "\u4e0d\u5f53": 998,
  "\u7684\u5947\u5999\u5192\u9669": 999,
  "\u6b66\u9053": 1000,
  "\u6d3b\u4e0b\u53bb": 1001,
  "\u2581\u53ea": 1002,
  "\u82f1\u7075": 1003,
  "\u4e4b\u4eba": 1004,
  "\u4e0d\u5bf9\u52b2": 1005,
  "\u2581\u543e": 1006,
  "\u7684\u7231": 1007,
  "\u2581\u6076\u9b54": 1008,
  "\u2581\u5317": 1009,
  "\u628a\u6211": 1010,
  "\u2581\u5bfb": 1011,
  "\u9047\u5230": 1012,
  "\u5a07\u5a07": 1013,
  "\u6e29\u67d4": 1014,
  "\u5f8b\u8005": 1015,
  "\u673a\u7532": 1016,
  "\u2581\u751c": 1017,
  "\u5929\u5e08": 1018,
  "\u2581\u6765\u81ea": 1019,
  "\u8bad\u7ec3": 1020,
  "\u8f6f\u996d": 1021,
  "\u7684\u65c5\u9014": 1022,
  "\u2581\u6e2f": 1023,
  "\u4e86\u5417": 1024,
  "\u2581\u4e2d\u56fd": 1025,
  "\u2581\u5f00": 1026,
  "\u2581\u65f6\u7a7a": 1027,
  "\u2581\u56e2\u5ba0": 1028,
  "\u6843\u82b1": 1029,
  "\u2581\u5357": 1030,
  "\u90fd\u60f3": 1031,
  "\u2581\u4fee\u771f": 1032,
  "\u7ba1\u7406": 1033,
  "\u2581\u65b9\u821f": 1034,
  "\u5c31\u53d8\u5f3a": 1035,
  "\u660e\u65e5\u65b9\u821f": 1036,
  "\u2581\u6625": 1037,
  "\u604b\u7efc": 1038,
  "\u2581\u5982\u679c": 1039,
  "\u53ec\u5524\u5e08": 1040,
  "\u8eab\u8fb9": 1041,
  "\u540c\u5b66": 1042,
  "\u552f\u4e00": 1043,
  "\u516c\u5b50": 1044,
  "\u2581\u5b64": 1045,
  "\u2581\u75c5\u5a07": 1046,
  "\u2581\u5fa1": 1047,
  "\u2581\u795e\u5947\u5b9d\u8d1d": 1048,
  "\u82f1\u7f8e": 1049,
  "\u4e00\u4e16": 1050,
  "\u4f20\u627f": 1051,
  "\u4e5f\u662f": 1052,
  "\u91cd\u542f": 1053,
  "\u53d1\u5bb6": 1054,
  "\u2581\u6df7\u6c8c": 1055,
  "\u5206\u8eab": 1056,
  "\u5403\u74dc": 1057,
  "\u609f\u7a7a": 1058,
  "\u63a0\u593a": 1059,
  "\u56fd\u5bb6": 1060,
  "\u2581\u603b\u88c1": 1061,
  "\u2581\u534a": 1062,
  "\u548c\u6211": 1063,
  "\u2581\u6551\u547d": 1064,
  "\u2581\u9526": 1065,
  "\u2581\u9ec4": 1066,
  "\u4e3a\u4ec0\u4e48": 1067,
  "\u5316\u8eab": 1068,
  "\u7f57\u4e3d": 1069,
  "\u5a07\u5ba0": 1070,
  "\u7684\u6211\u53ea\u60f3": 1071,
  "\u4e09\u5e74": 1072,
  "\u2581\u4e1c\u65b9": 1073,
  "\u2581\u843d": 1074,
  "\u610f\u5916": 1075,
  "\u795e\u79d8": 1076,
  "\u6b7b\u5bf9\u5934": 1077,
  "\u7684\u9006\u88ad": 1078,
  "\u5973\u5c0a": 1079,
  "\u5956\u52b1": 1080,
  "\u5996\u602a": 1081,
  "\u6253\u8138": 1082,
  "\u4e16\u754c\u4e4b": 1083,
  "\u8bbe\u8ba1": 1084,
  "\u5e26\u6211": 1085,
  "\u4e00\u6b21": 1086,
  "\u4eba\u683c": 1087,
  "\u5fcd\u754c": 1088,
  "\u8bc1\u9053": 1089,
  "\u2581\u5168\u804c": 1090,
  "\u2581\u6050\u6016": 1091,
  "\u4e3a\u6211": 1092,
  "\u9b54\u6cd5\u5e08": 1093,
  "\u2581\u968f": 1094,
  "\u2581\u89c4\u5219\u602a\u8c08": 1095,
  "\u4ed6\u4eec": 1096,
  "198": 1097,
  "\u2581\u70ae\u7070": 1098,
  "\u6211\u5e26": 1099,
  "\u72d0\u72f8": 1100,
  "\u7ec8\u7109": 1101,
  "\u8bcd\u6761": 1102,
  "\u2581\u8bf4": 1103,
  "\u9752\u6885\u7af9\u9a6c": 1104,
  "\u4ed9\u5c0a": 1105,
  "\u7edd\u8272": 1106,
  "\u4e4b\u5149": 1107,
  "\u8d85\u795e": 1108,
  "\u5fcd\u8005": 1109,
  "\u2581\u9003": 1110,
  "200": 1111,
  "\u5c0f\u59d0\u7684": 1112,
  "\u2581\u597d": 1113,
  "\u50b2\u5929": 1114,
  "\u5730\u72f1": 1115,
  "\u6c5f\u5c71": 1116,
  "\u2581\u4eca\u5929": 1117,
  "\u2581\u5492": 1118,
  "\u2581\u6c34": 1119,
  "\u6211\u53ea\u60f3": 1120,
  "\u8868\u767d": 1121,
  "\u2581\u56e0": 1122,
  "\u7b2c\u4e8c": 1123,
  "\u2581\u7ea2\u697c": 1124,
  "\u2581\u6597\u7f57\u5927\u9646": 1125,
  "\u2581\u542c": 1126,
  "\u6211\u53ea": 1127,
  "\u7231\u7684": 1128,
  "\u5deb\u5e08": 1129,
  "\u89c9\u9192\u4e86": 1130,
  "\u5d3d\u5d3d": 1131,
  "\u5996\u5b7d": 1132,
  "\u2581\u9707\u60ca": 1133,
  "\u66ff\u5ac1": 1134,
  "\u2581\u9690": 1135,
  "\u5361\u724c": 1136,
  "\u5367\u5e95": 1137,
  "\u624d\u4e0d\u662f": 1138,
  "\u2581\u51e1\u4eba": 1139,
  "\u4e00\u5bb6": 1140,
  "\u6211\u6765": 1141,
  "\u771f\u5343\u91d1": 1142,
  "\u2581\u6b21\u5143": 1143,
  "\u2581\u4e24": 1144,
  "\u4fee\u4e3a": 1145,
  "\u5947\u602a": 1146,
  "\u4ed9\u9014": 1147,
  "\u7956\u5b97": 1148,
  "\u2581\u7efc\u6b66": 1149,
  "\u88ab\u6211": 1150,
  "\u8840\u65cf": 1151,
  "\u522b\u4eba": 1152,
  "\u2581\u5f00\u5c40\u88ab": 1153,
  "\u4f53\u9a8c": 1154,
  "\u9000\u5a5a": 1155,
  "\u2581\u590f": 1156,
  "\u533b\u5983": 1157,
  "\u2581\u5c31": 1158,
  "\u5251\u795e": 1159,
  "\u970d\u683c\u6c83\u8328": 1160,
  "\u5173\u7cfb": 1161,
  "\u4e8b\u4ef6": 1162,
  "\u7238\u7238": 1163,
  "\u5168\u4e16\u754c": 1164,
  "\u2581\u4e09\u56fd\u4e4b": 1165,
  "\u7a7f\u8d8a\u4e86": 1166,
  "\u7efc\u82f1\u7f8e": 1167,
  "\u56de\u5fc6": 1168,
  "\u65c5\u7a0b": 1169,
  "\u673a\u68b0": 1170,
  "\u2581\u7a7f\u5230": 1171,
  "\u5927\u5b66": 1172,
  "\u8d85\u80fd\u529b": 1173,
  "\u5c0f\u5a07\u59bb": 1174,
  "\u540e\u6211\u6210\u4e86": 1175,
  "\u4e50\u56ed": 1176,
  "\u4e7e\u5764": 1177,
  "\u2581\u6ca1\u6709": 1178,
  "\u7b97\u547d": 1179,
  "\u5e0c\u671b": 1180,
  "\u5f88\u5408\u7406": 1181,
  "\u7231\u6211": 1182,
  "\u2581\u9b3c\u706d": 1183,
  "\u2581\u91cd\u751f\u516b\u96f6": 1184,
  "\u519b\u5a5a": 1185,
  "\u6b7b\u4e86": 1186,
  "\u8eba\u8d62": 1187,
  "\u4e0d\u60f3\u5f53": 1188,
  "\u5f71\u540e": 1189,
  "\u6211\u4ee5": 1190,
  "\u7384\u5e7b": 1191,
  "\u7ea6\u4f1a": 1192,
  "\u8db3\u7403": 1193,
  "\u2581\u4f5c\u4e3a": 1194,
  "\u5e08\u5144": 1195,
  "\u5077\u542c": 1196,
  "\u590d\u5236": 1197,
  "\u5371\u673a": 1198,
  "\u7f8e\u597d": 1199,
  "\u2581\u6d77\u8d3c\u4e4b": 1200,
  "\u4e0d\u53ef": 1201,
  "\u4ed9\u754c": 1202,
  "\u5c81\u6708": 1203,
  "\u679c\u5b9e": 1204,
  "\u9b54\u5c0a": 1205,
  "\u5de8\u661f": 1206,
  "\u5f7c\u5cb8": 1207,
  "\u5927\u4f6c\u7684": 1208,
  "\u7075\u9b42": 1209,
  "\u7ea8\u7ed4": 1210,
  "\u2581\u5e26": 1211,
  "\u5f81\u9014": 1212,
  "\u6b63\u4e49": 1213,
  "\u2581\u65e5": 1214,
  "\u54ed\u4e86": 1215,
  "\u5f1f\u5b50": 1216,
  "\u6821\u8349": 1217,
  "\u8fc7\u7684": 1218,
  "\u2581\u6743": 1219,
  "\u4e07\u53e4": 1220,
  "\u6218\u6597": 1221,
  "\u706b\u846c": 1222,
  "\u2581\u6b66\u4fa0": 1223,
  "\u7206\u7ea2": 1224,
  "\u5047\u5343\u91d1": 1225,
  "\u732e\u4e0a": 1226,
  "\u535a\u58eb": 1227,
  "\u6863\u6848": 1228,
  "\u5783\u573e": 1229,
  "\u7edd\u5bf9": 1230,
  "\u2581\u5047\u9762\u9a91\u58eb": 1231,
  "\u6211\u628a": 1232,
  "\u4e5f\u80fd": 1233,
  "\u2581\u547d\u8fd0": 1234,
  "\u7adf\u662f\u6211": 1235,
  "\u6697\u604b": 1236,
  "\u2581\u5929\u624d": 1237,
  "\u6b66\u9b42": 1238,
  "\u965b\u4e0b": 1239,
  "\u2581\u94f6": 1240,
  "\u2581\u9634\u9633": 1241,
  "\u5f02\u95fb\u5f55": 1242,
  "\u2581\u9f99\u65cf": 1243,
  "\u2581\u7687": 1244,
  "\u2581\u662f": 1245,
  "\u624b\u673a": 1246,
  "\u2581\u91cd\u751f\u4e03\u96f6": 1247,
  "\u672f\u5e08": 1248,
  "\u751f\u547d": 1249,
  "\u4e16\u95f4": 1250,
  "\u4e61\u6751": 1251,
  "\u706b\u846c\u573a": 1252,
  "\u4eac\u5708": 1253,
  "\u9a6c\u5a18": 1254,
  "\u2581\u79e6": 1255,
  "\u4e4b\u6218": 1256,
  "\u590d\u6d3b": 1257,
  "\u5f80\u4e8b": 1258,
  "\u90a3\u4e48": 1259,
  "\u9700\u8981": 1260,
  "\u2581\u60f3": 1261,
  "\u56de\u5f52": 1262,
  "\u2581\u7ed1\u5b9a": 1263,
  "\u2581\u82f1\u96c4\u8054\u76df": 1264,
  "\u8f6c\u4e16": 1265,
  "\u2581\u4e0d\u662f": 1266,
  "\u9020\u53cd": 1267,
  "\u524d\u59bb": 1268,
  "\u2581\u4ece\u96f6": 1269,
  "\u2581\u5143": 1270,
  "\u2581\u96ea": 1271,
  "\u4e09\u5343": 1272,
  "\u6700\u540e": 1273,
  "\u7684\u6211\u5374": 1274,
  "\u2581\u53cd": 1275,
  "\u2581\u672b\u4e16\u91cd\u751f": 1276,
  "\u5341\u4e8c": 1277,
  "\u4ea4\u6613": 1278,
  "\u540c\u5c45": 1279,
  "\u5973\u6b66\u795e": 1280,
  "\u9ebb\u4e86": 1281,
  "\u2581\u7a7a": 1282,
  "\u5feb\u4e50": 1283,
  "\u7adf\u7136\u662f": 1284,
  "10": 1285,
  "\u6e38\u8bb0": 1286,
  "\u884c\u8005": 1287,
  "\u2581\u60ca\u609a": 1288,
  "\u2581\u8d5b\u535a": 1289,
  "\u7684\u5927": 1290,
  "\u4fee\u771f\u754c": 1291,
  "\u2581\u516b": 1292,
  "\u2581\u9b42\u7a7f": 1293,
  "\u4eba\u7269": 1294,
  "\u6211\u771f\u7684": 1295,
  "\u5b66\u59d0": 1296,
  "\u5e08\u7236": 1297,
  "\u7981\u5fcc": 1298,
  "\u2581\u4e1c\u4eac": 1299,
  "\u5979\u53c8": 1300,
  "\u7ae5\u8bdd": 1301,
  "\u7684\u604b\u7231": 1302,
  "\u7814\u7a76": 1303,
  "\u2581\u827e": 1304,
  "\u690d\u7269": 1305,
  "\u8650\u6587": 1306,
  "\u540e\u88ab": 1307,
  "\u59b9\u5b50": 1308,
  "\u5e1d\u738b": 1309,
  "os": 1310,
  "\u5f88\u5408\u7406\u5427": 1311,
  "\u2014\u2014": 1312,
  "\u2581\u81f4": 1313,
  "\u79cd\u5175": 1314,
  "\u7a7f\u68ad": 1315,
  "\u2581\u5e7d": 1316,
  "\u4e8c\u4ee3": 1317,
  "\u7ffb\u8eab": 1318,
  "\u2581\u9b54\u5973": 1319,
  "\u89c9\u9192\u6765": 1320,
  "\u4e4b\u6b4c": 1321,
  "\u51b3\u5b9a": 1322,
  "\u901a\u5929": 1323,
  "\u2581\u6211\u6709\u4e00": 1324,
  "\u2581\u730e": 1325,
  "\u6210\u5723": 1326,
  "\u6e05\u51b7": 1327,
  "\u770b\u5230": 1328,
  "\u8bc5\u5492": 1329,
  "\u2581\u534e": 1330,
  "\u2581\u54c8": 1331,
  "\u592a\u592a": 1332,
  "\u2581\u661f\u94c1": 1333,
  "\u6c2a\u91d1": 1334,
  "\u8650\u6e23": 1335,
  "\u8d44\u672c": 1336,
  "\u8bf8\u795e": 1337,
  "\u2581\u4e3a\u4ec0\u4e48": 1338,
  "\u81ea\u7531": 1339,
  "\u7edd\u4e0d": 1340,
  "\u2581\u62e5\u6709": 1341,
  "\u2581\u9f99\u73e0": 1342,
  "\u2581\u6728\u53f6": 1343,
  "\u75c5\u5f31": 1344,
  "\u5e9f\u571f": 1345,
  "\u866b\u65cf": 1346,
  "\u4e0d\u4e00\u6837": 1347,
  "\u2581\u8ffd": 1348,
  "\u5929\u5e1d": 1349,
  "\u60a0\u95f2": 1350,
  "\u2581\u9752\u6625": 1351,
  "\u6f02\u4eae": 1352,
  "\u52a0\u70b9": 1353,
  "\u4e0a\u763e": 1354,
  "\u6211\u5f53": 1355,
  "\u6740\u7a7f": 1356,
  "\u2581\u5973\u5e1d": 1357,
  "\u2581\u81f3\u5c0a": 1358,
  "\u56db\u5408\u9662": 1359,
  "\u603b\u662f": 1360,
  "\u597d\u50cf": 1361,
  "\u56de\u6765": 1362,
  "\u5de5\u4f5c": 1363,
  "\u67ef\u5b66": 1364,
  "\u8dd1\u8def": 1365,
  "\u2581\u516c\u4e3b": 1366,
  "\u2581\u5b98": 1367,
  "\u602a\u517d": 1368,
  "\u6a2a\u63a8": 1369,
  "\u7684\u5d29\u574f": 1370,
  "\u8fdb\u5165": 1371,
  "\u5e7b\u60f3\u4e61": 1372,
  "\u2581\u6d6e": 1373,
  "\u4eba\u8bbe": 1374,
  "\u2581\u51fa": 1375,
  "\u4ee3\u7406": 1376,
  "\u600e\u6837": 1377,
  "\u8d34\u8d34": 1378,
  "\u638c\u63a7": 1379,
  "\u5f00\u5c40\u4e00": 1380,
  "\"\"": 1381,
  "\u2581\u795e\u533b": 1382,
  "\u4e00\u5929": 1383,
  "\u5f00\u5c40\u5c31": 1384,
  "\u7684\u767d\u6708\u5149": 1385,
  "\u5927\u6218": 1386,
  "\u7231\u4e0a\u6211": 1387,
  "\u827a\u672f": 1388,
  "\u2581\u604b\u7231": 1389,
  "\u2581\u5200": 1390,
  "\u2581\u591a": 1391,
  "\u795e\u4ed9": 1392,
  "\u2581\u653b\u7565": 1393,
  "\u5957\u8def": 1394,
  "\u751c\u59bb": 1395,
  "\u2581\u7537": 1396,
  "\u603b\u60f3": 1397,
  "\u2581\u6b7b\u4ea1": 1398,
  "\u767e\u4ebf": 1399,
  "\u2581\u6597\u7834": 1400,
  "199": 1401,
  "\u519c\u5bb6": 1402,
  "\u5973\u88c5": 1403,
  "\u5a18\u5a18": 1404,
  "\u653e\u8fc7": 1405,
  "\u742a\u4e9a": 1406,
  "100": 1407,
  "\u4e4b\u6700\u5f3a": 1408,
  "\u52a8\u7269": 1409,
  "\u2581\u4eba\u751f": 1410,
  "\u521d\u604b": 1411,
  "\u6ce2\u7279": 1412,
  "\u4e16\u754c\u5f53": 1413,
  "\u5931\u5fc6": 1414,
  "\u732b\u5a18": 1415,
  "\u2581\u672a\u6765": 1416,
  "\u7a7f\u8d8a\u6210": 1417,
  "\u2581\u6211\u4e0d\u662f": 1418,
  "\u4fee\u517b": 1419,
  "\u9526\u9ca4": 1420,
  "\u5f00\u59cb\u65e0\u654c": 1421,
  "\u5c11\u7684": 1422,
  "\u2581\u4e8c\u6b21\u5143": 1423,
  "\u2581\u54b8\u9c7c": 1424,
  "\u6e38\u620f\u91cc": 1425,
  "\u2581\u5b89": 1426,
  "\u2581\u53f6\u7f57\u4e3d": 1427,
  "\u2581\u6b64": 1428,
  "\u2581\u65e0\u9650\u4e4b": 1429,
  "\u5343\u4ebf": 1430,
  "\u4e0d\u5c0f\u5fc3": 1431,
  "\u4f63\u5175": 1432,
  "\u2581\u6297\u6218": 1433,
  "\u4e4b\u5203": 1434,
  "\u56e4\u8d27": 1435,
  "\u9738\u4e3b": 1436,
  "\u5728\u5f02\u4e16\u754c": 1437,
  "\u519c\u5973": 1438,
  "\u516d\u96f6": 1439,
  "\u2581\u9ed1\u6697": 1440,
  "\u624d\u4e0d\u4f1a": 1441,
  "\u8001\u5a46\u662f": 1442,
  "\u53ea\u80fd": 1443,
  "\u624b\u6495": 1444,
  "\u742a\u4e9a\u5a1c": 1445,
  "\u594b\u6597": 1446,
  "\u2581\u5206\u624b": 1447,
  "\u7684\u79d8\u5bc6": 1448,
  "\u5e78\u8fd0": 1449,
  "\u6a21\u677f": 1450,
  "\u8def\u4e0a": 1451,
  "\u6444\u653f\u738b": 1452,
  "\u2581\u53f2\u4e0a": 1453,
  "\u2581\u8d85\u795e\u5b66\u9662": 1454,
  "\u2581\u5bd2": 1455,
  "\u5947\u5e7b": 1456,
  "\u5012\u8ffd": 1457,
  "\u800c\u5df2": 1458,
  "\u2581\u5168\u80fd": 1459,
  "\u8bf8\u5929\u4e07\u754c": 1460,
  "\u56a3\u5f20": 1461,
  "\u751f\u5b50": 1462,
  "\u4e0d\u505a": 1463,
  "\u2581\u5929\u547d": 1464,
  "\u5f11\u795e": 1465,
  "\u2581\u539f\u6765": 1466,
  "\u2581\u6211\u8981": 1467,
  "\u4e4b\u604b": 1468,
  "\u6211\u5c31": 1469,
  "\u8fc7\u53bb": 1470,
  "\u7684\u65c5\u884c": 1471,
  "\u7684\u6e38\u620f": 1472,
  "\u7684\u65e5\u5e38\u751f\u6d3b": 1473,
  "\u2581\u72ec": 1474,
  "\u5a07\u8f6f": 1475,
  "\u6218\u8bb0": 1476,
  "\u793a\u5f55": 1477,
  "\u2581\u6211\u53ea\u60f3": 1478,
  "\u770b\u89c1": 1479,
  "\u7f51\u6e38": 1480,
  "\u641e\u9519\u4e86": 1481,
  "\u2581\u6797": 1482,
  "\u529b\u91cf": 1483,
  "\u5e9f\u7269": 1484,
  "\u2581\u4e27\u5c38": 1485,
  "\u5b66\u4e60": 1486,
  "\u6210\u5c31": 1487,
  "\u5f3a\u5236\u7231": 1488,
  "\u6d3b\u7740": 1489,
  "\u770b\u6211": 1490,
  "\u8d5a\u94b1": 1491,
  "\u597d\u597d": 1492,
  "\u4e0d\u597d\u60f9": 1493,
  "\u4e00\u751f": 1494,
  "\u2581\u6253": 1495,
  "\u533a\u96f6": 1496,
  "\u4f5c\u6b7b": 1497,
  "\u4f20\u4e4b": 1498,
  "\u2581\u6b22\u8fce": 1499,
  "\u7684\u5f02\u754c": 1500,
  "\u2581\u884c": 1501,
  "\u7ed3\u5c40": 1502,
  "\u544a\u767d": 1503,
  "\u751f\u6daf": 1504,
  "\u2581\u4e71\u4e16": 1505,
  "\u2581\u62ef\u6551": 1506,
  "\u738b\u5ea7": 1507,
  "\u4eca\u5929\u4e5f\u5728": 1508,
  "\u2581\u9519": 1509,
  "\u2581\u52c7\u8005": 1510,
  "\u4e4b\u6211\u7684": 1511,
  "\u5341\u5e74\u4ee3": 1512,
  "\u4f5c\u8005": 1513,
  "\u5728\u90fd\u5e02": 1514,
  "\u6295\u8d44": 1515,
  "\u4f60\u522b": 1516,
  "\u84dd\u661f": 1517,
  "\u2581\u519c\u95e8": 1518,
  "\u2581\u7ec8\u6781": 1519,
  "\u2581\u82cd": 1520,
  "\u2581\u94c1": 1521,
  "\u597d\u4eba": 1522,
  "\u5f53\u5929": 1523,
  "\u77ed\u7bc7": 1524,
  "\u4ed9\u4eba": 1525,
  "\u5251\u5723": 1526,
  "\u6211\u7528": 1527,
  "\u60ca\u609a": 1528,
  "\u7075\u5f02": 1529,
  "\u65b9\u5f0f": 1530,
  "\u2581\u5929\u9053": 1531,
  "\u7684\u7efc\u6f2b": 1532,
  "\u2581\u7f6a": 1533,
  "\u4f60\u54ed": 1534,
  "\u5b9e\u529b": 1535,
  "\u64a9\u4eba": 1536,
  "\u2581\u7535": 1537,
  "\u591a\u798f": 1538,
  "\u2581\u5510": 1539,
  "\u4e07\u4ebf": 1540,
  "\u4fdd\u9556": 1541,
  "\u6709\u4ec0\u4e48": 1542,
  "\u2581\u7b2c\u4e00": 1543,
  "\u2581\u5bf9": 1544,
  "\u5730\u4e0b": 1545,
  "\u609f\u6027": 1546,
  "\u8bb0\u5f55": 1547,
  "\u2581\u795e\u79d8": 1548,
  "\u5f00\u5c40\u6210\u4e3a": 1549,
  "\u6d41\u6d6a": 1550,
  "\u9996\u5e2d": 1551,
  "\u4e5d\u5929": 1552,
  "\u72c2\u5983": 1553,
  "\u4f60\u8bf4": 1554,
  "\u5929\u5929": 1555,
  "\u94a2\u94c1": 1556,
  "\u9f99\u738b": 1557,
  "\u592a\u5b50\u7237": 1558,
  "\u2581\u6570": 1559,
  "\u5de8\u4eba": 1560,
  "\u8d77\u6e90": 1561,
  "\u2581\u653e": 1562,
  "\u539f\u8c05": 1563,
  "\u961f\u53cb": 1564,
  "\u2581\u6821\u82b1": 1565,
  "\u5c45\u7136\u662f": 1566,
  "\u4e09\u4e2a": 1567,
  "\u7136\u540e": 1568,
  "\u5e9f\u6750": 1569,
  "\u7684\u9752\u6625": 1570,
  "\u2581\u6211\u53ea\u662f": 1571,
  "\u6211\u7adf": 1572,
  "\u4e0d\u4e86": 1573,
  "\u57fa\u56e0": 1574,
  "\u65e0\u5c3d": 1575,
  "\u2581\u78a7\u84dd": 1576,
  "\u8fd9\u6863": 1577,
  "\u8d85\u4eba": 1578,
  "\u2581\u5ae1\u5973": 1579,
  "\u56de\u6765\u4e86": 1580,
  "\u2581\u7efc\u5f71\u89c6\u4e4b": 1581,
  "\u2581\u72fc": 1582,
  "\u76f8\u4eb2": 1583,
  "SSS": 1584,
  "\u2581\u674e": 1585,
  "\u6210\u771f": 1586,
  "\u81ea\u6211\u4fee\u517b": 1587,
  "\u2581\u5a5a": 1588,
  "\u5730\u5e9c": 1589,
  "\u706d\u4e16": 1590,
  "\u7684\u795e": 1591,
  "\u5149\u4e4b": 1592,
  "\u5230\u5e95": 1593,
  "\u2581\u5927\u4f6c": 1594,
  "\u2581\u5b87\u5b99": 1595,
  "\u4e3b\u4e49": 1596,
  "\u80cc\u53db": 1597,
  "\u4ee5\u540e": 1598,
  "\u519b\u56e2": 1599,
  "\u59d0\u59b9": 1600,
  "\u6210\u529f": 1601,
  "\u8dd1\u4e86": 1602,
  "\u8def\u4eba\u7532": 1603,
  "\u7384\u5b66": 1604,
  "\u8c01\u8fd8": 1605,
  "\u2581\u6765\u5230": 1606,
  "\u4e4b\u5fc3": 1607,
  "\u516c\u5bd3": 1608,
  "\u5341\u516b": 1609,
  "\u5ba4\u53cb": 1610,
  "\u524d\u5973\u53cb": 1611,
  "\u5b88\u62a4\u8005": 1612,
  "\u4e0a\u4f4d": 1613,
  "\u53c8\u88ab": 1614,
  "\u6ca6\u9677": 1615,
  "\u7684\u65e0\u9650": 1616,
  "\u7684\u4eba\u751f": 1617,
  "\u2581\u8f6c\u751f\u6210": 1618,
  "\u5386\u9669": 1619,
  "\u53ef\u662f": 1620,
  "\u6f2b\u753b": 1621,
  "\u4e2d\u56fd": 1622,
  "\u840c\u5b9d": 1623,
  "\u53ef\u601c": 1624,
  "\u8f85\u52a9": 1625,
  "\u5b50\u591a\u798f": 1626,
  "\u65e0\u4e0a": 1627,
  "\u2581\u5e9f\u571f": 1628,
  "\u2581\u65e0\u5c3d": 1629,
  "\u70bc\u91d1": 1630,
  "\u9b54\u5934": 1631,
  "\u9006\u5929\u6539\u547d": 1632,
  "\u4e92\u6362": 1633,
  "\u524d\u4e16": 1634,
  "\u53d1\u75af": 1635,
  "\u793e\u4f1a": 1636,
  "\u2581\u88ab\u8feb": 1637,
  "\u6d88\u5931": 1638,
  "\u2581\u6ee1\u7ea7": 1639,
  "\u4e08\u592b": 1640,
  "\u7684\u5c11\u5973": 1641,
  "\u59d1\u5a18": 1642,
  "\u76ee\u6807": 1643,
  "\u5927\u817f": 1644,
  "\u7530\u56ed": 1645,
  "\u2581\u4e00\u89c9\u9192\u6765": 1646,
  "\u2581\u5730\u7403": 1647,
  "\u2581\u6bd2": 1648,
  "\u8840\u8109": 1649,
  "\u906e\u5929": 1650,
  "\u65b0\u5a18": 1651,
  "\u662f\u5426": 1652,
  "\u53d1\u5bb6\u81f4\u5bcc": 1653,
  "\u2581\u9634": 1654,
  "\u4e09\u754c": 1655,
  "\u8f6c\u8eab": 1656,
  "\u624b\u63e1": 1657,
  "\u7684\u7a7f\u8d8a": 1658,
  "\u5929\u5c0a": 1659,
  "\u5efa\u7acb": 1660,
  "\u738b\u5b50": 1661,
  "\u9082\u9005": 1662,
  "\u2581\u9738\u9053": 1663,
  "\u5229\u6ce2\u7279": 1664,
  "\u2581\u5411": 1665,
  "\u7a81\u7136": 1666,
  "\u2581\u6821\u56ed": 1667,
  "\u4e4b\u5730": 1668,
  "\u2581\u6b66\u9053": 1669,
  "\u2581\u795e\u660e": 1670,
  "\u2581\u65f6": 1671,
  "\u2581\u5d29\u574f\u4e09": 1672,
  "\u2581\u706b": 1673,
  "\u500d\u8fd4": 1674,
  "\u2581\u58a8": 1675,
  "\u5c71\u6d77": 1676,
  "\u2581\u65f6\u5149": 1677,
  "\u4f5c\u6218": 1678,
  "\u62bd\u5956": 1679,
  "\u670b\u514b": 1680,
  "\u2581\u6c5f\u6e56": 1681,
  "\u4e5d\u96f6": 1682,
  "\u51a0\u519b": 1683,
  "\u51b3\u6597": 1684,
  "\u73b0\u5728": 1685,
  "\u7cfb\u5217": 1686,
  "\u2581\u7ed9": 1687,
  "\u53d8\u6001": 1688,
  "\u7504\u5b1b": 1689,
  "\u2581\u5973\u914d": 1690,
  "\u5168\u804c": 1691,
  "\u5168\u9760": 1692,
  "\u25811": 1693,
  "\u81f3\u9ad8": 1694,
  "\u82b1\u5f00": 1695,
  "\u2581\u51a5": 1696,
  "\u7b80\u5355": 1697,
  "\u2581\u4fee": 1698,
  "\u2581\u6211\u6210\u4e86": 1699,
  "\u5ba1\u5224": 1700,
  "\u6d41\u653e": 1701,
  "\u8d70\u4e86": 1702,
  "\u97e9\u5a31": 1703,
  "\u2581\u7b7e\u5230": 1704,
  "\u2581\u732b": 1705,
  "\u2581\u83ab": 1706,
  "\u5e73\u9759": 1707,
  "\u6389\u4e86": 1708,
  "\u2581\u9b54\u6cd5\u5c11\u5973": 1709,
  "\u519c\u573a": 1710,
  "\u5916\u661f": 1711,
  "\u8fd9\u53eb": 1712,
  "\u5947\u8ff9": 1713,
  "\u5fc3\u52a8": 1714,
  "\u9769\u547d": 1715,
  "\u2581\u8179\u9ed1": 1716,
  "\u5927\u5192\u9669": 1717,
  "\u6bd5\u4e1a": 1718,
  "\u5bcc\u5a46": 1719,
  "\u2581\u5168\u6c11\u9886\u4e3b": 1720,
  "\u2581\u7f57": 1721,
  "\u2581\u96f6": 1722,
  "\u54ea\u91cc": 1723,
  "\u6211\u76f4\u63a5": 1724,
  "\u8fd9\u662f": 1725,
  "\u4f7f\u8005": 1726,
  "\u5bfb\u627e": 1727,
  "\u9e3f\u8499": 1728,
  "\u2581\u6ca1": 1729,
  "\u7279\u5de5": 1730,
  "\u5176\u5b9e": 1731,
  "\u54ea\u5412": 1732,
  "\u738b\u671d": 1733,
  "\u81ea\u91cd": 1734,
  "\u2581\u56de": 1735,
  "\u4e0a\u6211": 1736,
  "\u2581\u6c11\u56fd": 1737,
  "\u2581\u7a7f\u8fdb": 1738,
  "\u2581\u672a": 1739,
  "\u76d1\u72f1": 1740,
  "\u914d\u89d2": 1741,
  "\u2581\u6cf0\u62c9": 1742,
  "\u5927\u795e": 1743,
  "\u624d\u4e0d\u8981": 1744,
  "\u2581\u7edd\u533a\u96f6": 1745,
  "\u2581\u4eb2": 1746,
  "\u2581\u65a9": 1747,
  "\u4e4b\u540d": 1748,
  "\u65b9\u6cd5": 1749,
  "\u2581\u5f71\u89c6": 1750,
  "\u6709\u4ebf\u70b9": 1751,
  "\u6211\u4e0e": 1752,
  "\u8d34\u8eab": 1753,
  "\u2581\u95ea\u5a5a": 1754,
  "\u2581\u5f3a": 1755,
  "\u2581\u6cd5": 1756,
  "\u83b1\u59c6": 1757,
  "\u2581\u72d0\u5996": 1758,
  "\u5c31\u80fd\u53d8\u5f3a": 1759,
  "\u5b66\u6821": 1760,
  "\u672c\u4e66": 1761,
  "\u2581\u7fa4": 1762,
  "\u4f9d\u65e7": 1763,
  "\u62a5\u544a": 1764,
  "\u7ea2\u697c": 1765,
  "\u8981\u6211": 1766,
  "\u2581\u56e0\u4e3a": 1767,
  "\u2581\u5c06\u519b": 1768,
  "\u4e16\u754c\u91cc": 1769,
  "\u9047\u4e0a": 1770,
  "\u2581\u5168\u5bb6": 1771,
  "80": 1772,
  "\u6765\u88ad": 1773,
  "\u76f8\u9047": 1774,
  "\u2581\u5929\u964d": 1775,
  "\u2581\u6c38\u6052": 1776,
  "\u2581\u5148": 1777,
  "\u6b3a\u8d1f": 1778,
  "\u822a\u7ebf": 1779,
  "\u5e08\u5085": 1780,
  "\u751f\u7684": 1781,
  "\u2581\u5e1d\u56fd": 1782,
  "\u7cfb\u7edf\u540e": 1783,
  "\u5973\u7687": 1784,
  "\u9547\u538b": 1785,
  "\u4e4b\u57ce": 1786,
  "\u5723\u676f": 1787,
  "\u622a\u80e1": 1788,
  "\u62bd\u5361": 1789,
  "\u2581\u795e\u8bdd": 1790,
  "\u2581\u9886\u4e3b": 1791,
  "\u5973\u603b\u88c1": 1792,
  "\u7236\u6bcd": 1793,
  "\u2581\u8001\u516c": 1794,
  "\u79bb\u5f00": 1795,
  "\u641e\u9519\u4e86\u4ec0\u4e48": 1796,
  "\u6211\u65e0\u654c\u4e86": 1797,
  "AI": 1798,
  "\u76d8\u70b9": 1799,
  "\u795e\u9b54": 1800,
  "\u8c03\u67e5": 1801,
  "\u7684\u6551\u8d4e": 1802,
  "\u2581\u6211\u771f\u4e0d\u662f": 1803,
  "\u2581\u4e0b": 1804,
  "\u5236\u4f5c": 1805,
  "\u90bb\u5c45": 1806,
  "\u2581\u6c49": 1807,
  "\u5982\u6b64": 1808,
  "\u6765\u4e34": 1809,
  "\u8ddf\u6211": 1810,
  "\u9e23\u4eba": 1811,
  "\u2581\u541e\u566c": 1812,
  "\u2581\u6d2a\u8352\u4e4b": 1813,
  "\u4fee\u6539": 1814,
  "\u5927\u79e6": 1815,
  "\u2581\u5929\u4e0b": 1816,
  "\u2581\u65f6\u95f4": 1817,
  "\u2581\u56db\u5408\u9662\u4e4b": 1818,
  "\u2581\u5361": 1819,
  "***": 1820,
  "\u2581\u519c\u5bb6": 1821,
  "\u666e\u901a\u4eba": 1822,
  "\u6bcf\u5929\u90fd\u5728": 1823,
  "BA": 1824,
  "\u539f\u6765": 1825,
  "\u6211\u5c31\u662f": 1826,
  "\u2581\u6c89": 1827,
  "\u9f99\u65cf": 1828,
  "*******": 1829,
  "\u7206\u4e86": 1830,
  "\u79d1\u5b66\u7684": 1831,
  "PC": 1832,
  "\u4e00\u4eba": 1833,
  "\u540e\u5988": 1834,
  "\u60f3\u5f53": 1835,
  "\u7684\u5979": 1836,
  "\u7bee\u7403": 1837,
  "\u662f\u4ec0\u4e48": 1838,
  "\u517b\u4e86": 1839,
  "\u629b\u5f03": 1840,
  "\u68a6\u5883": 1841,
  "\u7ffb\u5929": 1842,
  "\u592a\u9633": 1843,
  "\u5f92\u513f": 1844,
  "\u524d\u7537\u53cb": 1845,
  "\u5927\u4ea8": 1846,
  "\u5ffd\u60a0": 1847,
  "\u5341\u4e07": 1848,
  "\u5927\u54e5": 1849,
  "\u5c0f\u5e08\u59b9": 1850,
  "\u672a\u5a5a\u592b": 1851,
  "\u2581\u6361": 1852,
  "\u4e0d\u5f97": 1853,
  "\u4eae\u5251": 1854,
  "\u5168\u5458": 1855,
  "\u5996\u7cbe": 1856,
  "NPC": 1857,
  "\u7684\u90a3\u4e9b\u5e74": 1858,
  "\u50bb\u67f1": 1859,
  "\u6b63\u5728": 1860,
  "\u2581\u96f7": 1861,
  "\u9000\u4f11": 1862,
  "\u53ea\u662f\u4e2a": 1863,
  "\u661f\u6cb3": 1864,
  "\u70ae\u7070\u5973\u914d": 1865,
  "\u9690\u85cf": 1866,
  "\u2581\u6211\u6b7b\u540e": 1867,
  "\u600e\u4e48\u53ef\u80fd": 1868,
  "\u4fdd\u62a4": 1869,
  "\u593a\u820d": 1870,
  "\u2581\u6e05\u7a7f": 1871,
  "\u4e4b\u95f4": 1872,
  "\u751f\u7269": 1873,
  "\u8d22\u9600": 1874,
  "\u2581\u4e07\u53e4": 1875,
  "\u2581\u91cd\u8fd4": 1876,
  "\u679c\u7136": 1877,
  "\u2581\u987e": 1878,
  "\u59cb\u7687": 1879,
  "\u6349\u9b3c": 1880,
  "\u89c6\u9891": 1881,
  "\u5927\u9053": 1882,
  "\u6a2a\u626b": 1883,
  "\u8d5b\u535a": 1884,
  "\u2581\u5c71\u6d77": 1885,
  "70": 1886,
  "\u6211\u771f\u4e0d\u662f": 1887,
  "\u2581\u53ec\u5524": 1888,
  "\u2581\u4f2a": 1889,
  "\u5bfc\u6f14": 1890,
  "\u65e0\u6cd5": 1891,
  "\u65e5\u5fd7": 1892,
  "\u7740\u6211": 1893,
  "\u2581\u7efc\u6f2b\u4e4b": 1894,
  "\u2581\u6211\u5728\u672b\u4e16": 1895,
  "\u2581\u7206": 1896,
  "\u4e00\u6761": 1897,
  "\u5df2\u7ecf": 1898,
  "\u2581\u5f53\u6211": 1899,
  "\u2581\u7a7a\u95f4": 1900,
  "\u4e0d\u53ef\u80fd\u662f": 1901,
  "\u2581\u505a": 1902,
  "\u8d35\u65cf": 1903,
  "\u66dd\u5149\u4e86": 1904,
  "\u7684\u5192\u9669": 1905,
  "\u4f5c\u7cbe": 1906,
  "\u5236\u9738": 1907,
  "\u4e4b\u68a6": 1908,
  "\u524d\u4efb": 1909,
  "\u70ed\u8840": 1910,
  "\u53ea\u4e3a": 1911,
  "\u76f8\u516c": 1912,
  "\u2581\u4f60\u597d": 1913,
  "\u2581\u5931\u5fc6": 1914,
  "\u2581\u82df": 1915,
  "\u6539\u9020": 1916,
  "\u661f\u7403": 1917,
  "\u5728\u6211": 1918,
  "\u6574\u4e2a": 1919,
  "\u672f\u58eb": 1920,
  "\u751c\u5fc3": 1921,
  "\u2581\u8001\u5a46": 1922,
  "\u2581\u82cf": 1923,
  "\u2581\u91ce": 1924,
  "\u4eba\u65cf": 1925,
  "\u5927\u5723": 1926,
  "\u7684\u90a3": 1927,
  "\u7efc\u827a": 1928,
  "\u6211\u9009\u62e9": 1929,
  "\u72d0\u5996": 1930,
  "NBA": 1931,
  "\u2581\u6218\u795e": 1932,
  "\u8fdb\u884c": 1933,
  "\u5728\u5d29\u574f": 1934,
  "\u5929\u5ead": 1935,
  "\u2581\u91cd\u751f\u4e4b\u6211\u5728": 1936,
  "\u2581\u521d": 1937,
  "\u63d0\u7763": 1938,
  "\u7ba1\u8fd9\u53eb": 1939,
  "\u5546\u4e1a": 1940,
  "\u5929\u738b": 1941,
  "\u6211\u5374": 1942,
  "\u2581\u7231\u60c5": 1943,
  "\u2581\u66b4": 1944,
  "\u4f60\u662f": 1945,
  "--": 1946,
  "\u2581\u541b": 1947,
  "\u4e8c\u4e09": 1948,
  "\u529f\u6cd5": 1949,
  "\u5e1d\u541b": 1950,
  "\u8fea\u8fe6": 1951,
  "\u2581\u75af\u6279": 1952,
  "\u2581\u8be1\u79d8": 1953,
  "\u5be1\u5987": 1954,
  "\u4e0d\u4f4f\u4e86": 1955,
  "\u8fd9\u6863\u4e8b": 1956,
  "\u2581\u6b22\u8fce\u6765\u5230": 1957,
  "\u2581\u65e7": 1958,
  "\u8ffd\u6740": 1959,
  "\u4f60\u8ba9\u6211": 1960,
  "\u5f00\u5c40\u7b7e\u5230": 1961,
  "\u2581\u6d77\u8d3c\u738b\u4e4b": 1962,
  "\u5728\u672b\u4e16": 1963,
  "\u4e0a\u4e0b": 1964,
  "\u2581\u5929\u707e": 1965,
  "\u6211\u4e0d\u662f": 1966,
  "\u2581\u6211\u4e00\u4e2a": 1967,
  "\u2581\u51e1": 1968,
  "\u2581\u5b8c\u7f8e": 1969,
  "\u2581\u5403": 1970,
  "\u4e4b\u65f6": 1971,
  "\u2581\u5f02\u4e16\u754c\u7684": 1972,
  "\u4ece\u96f6": 1973,
  "\u52a9\u6211": 1974,
  "\u5305\u56f4": 1975,
  "\u53c8\u5728": 1976,
  "\u5973\u670b\u53cb": 1977,
  "\u81ea\u5df1\u7684": 1978,
  "\u4e4b\u82b1": 1979,
  "\u519b\u5ac2": 1980,
  "\u4e4b\u9053": 1981,
  "\u5217\u8f66": 1982,
  "\u5e8f\u5217": 1983,
  "\u2581\u4f60\u4eec": 1984,
  "\u76f4\u64ad\u95f4": 1985,
  "\u72e9\u730e": 1986,
  "\u8dea\u6c42": 1987,
  "\u9b3c\u706d": 1988,
  "\u62b1\u6b49": 1989,
  "\u7684\u4f60": 1990,
  "\u8d85\u5e02": 1991,
  "\u2581\u661f\u7a7a": 1992,
  "\u2581\u738b\u7237": 1993,
  "\u2581\u5168\u6c11\u8f6c\u804c": 1994,
  "\u2581\u5728\u5f02\u4e16\u754c": 1995,
  "\u540c\u684c": 1996,
  "\u6000\u91cc": 1997,
  "\u2581\u7f8e\u6f2b": 1998,
  "\u2581\u7528": 1999,
  "\u8fdb\u51fb": 2000,
  "\u8bf7\u81ea\u91cd": 2001,
  "\u2581\u4ece\u96f6\u5f00\u59cb\u7684": 2002,
  "\u2581\u5e73": 2003,
  "\u2581\u7d2b": 2004,
  "\u2581\u9547": 2005,
  "\u592b\u90ce": 2006,
  "\u707e\u53d8": 2007,
  "\u2581\u91cd\u751f\u6210": 2008,
  "\u2581\u84dd": 2009,
  "\u2581\u9738": 2010,
  "\u4e0d\u518d": 2011,
  "\u5e1d\u5c0a": 2012,
  "\u771f\u5b9e": 2013,
  "\u7ec4\u7ec7": 2014,
  "\u9ab7\u9ac5": 2015,
  "\u5386\u9669\u8bb0": 2016,
  "\u5927\u4f5c\u6218": 2017,
  "\u2581\u770b": 2018,
  "\u4e00\u5b9a": 2019,
  "\u574f\u4e86": 2020,
  "\u2581\u95ea": 2021,
  "\u795e\u517d": 2022,
  "\u2581\u900d\u9065": 2023,
  "\u627e\u4e0a\u95e8": 2024,
  "\u8352\u5c9b": 2025,
  "\u7684\u65b0\u4e66": 2026,
  "\u6211\u5fc3": 2027,
  "\u7ec8\u7ed3": 2028,
  "\u5f00\u5c40\u53ec\u5524": 2029,
  "\u5eb6\u5973": 2030,
  "\u2581\u5165": 2031,
  "\u6740\u4eba": 2032,
  "\u98ce\u534e": 2033,
  "\u2581\u8bef": 2034,
  "\u4e4b\u591c": 2035,
  "\u4e4b\u95e8": 2036,
  "\u6211\u6709\u4e00": 2037,
  "\u517b\u5d3d": 2038,
  "\u638c\u95e8": 2039,
  "\u2581\u521b\u4e16": 2040,
  "\u662f\u4e0d\u662f": 2041,
  "\u2581\u517d": 2042,
  "\u53d1\u766b": 2043,
  "\u592a\u76d1": 2044,
  "\u8fd8\u6709": 2045,
  "\u2581\u53d8": 2046,
  "\u2581\u7070": 2047,
  "\u4e4b\u5251": 2048,
  "\u5343\u4e07": 2049,
  "\u57ce\u5e02": 2050,
  "\u6240\u6709\u4eba": 2051,
  "\u4e0b\u4e61": 2052,
  "\u5973\u9b3c": 2053,
  "\u2581\u5e73\u51e1": 2054,
  "\u2581\u6211\u5728\u5f02\u754c": 2055,
  "\u2581\u6211\u6709\u4e00\u4e2a": 2056,
  "\u4e4b\u529b": 2057,
  "\u4ed9\u5973": 2058,
  "\u6240\u6b32": 2059,
  "\u2581\u66ff\u8eab": 2060,
  "\u6211\u5fc3\u58f0": 2061,
  "\u2581\u4f0a": 2062,
  "\u2581\u8d64": 2063,
  "\u6218\u573a": 2064,
  "\u2581\u602a": 2065,
  "\u62ff\u4e0b": 2066,
  "\u6211\u53cd\u624b": 2067,
  "\u2581\u771f\u5343\u91d1": 2068,
  "\u4e3a\u4f55": 2069,
  "\u4e56\u4e56": 2070,
  "\u514b\u82cf": 2071,
  "\u76f8\u601d": 2072,
  "\u4e24\u4e2a": 2073,
  "\u4e4b\u5dc5": 2074,
  "\u65e5\u672c": 2075,
  "\u771f\u662f": 2076,
  "\u5c31\u8981": 2077,
  "\u53f2\u83b1\u59c6": 2078,
  "\u2581\u6597\u7f57\u5927\u9646\u4e4b": 2079,
  "\u5e1d\u7687": 2080,
  "\u5e26\u5a03": 2081,
  "\u6211\u80fd\u65e0\u9650": 2082,
  "\u5bb6\u4eba": 2083,
  "\u2581\u73b0\u4ee3": 2084,
  "\u2581\u5965\u7279\u66fc": 2085,
  "\u7684\u5fc3": 2086,
  "\u6559\u5e08": 2087,
  "\u7ec8\u5c06": 2088,
  "\u8b66\u5bdf": 2089,
  "\u5c0f\u767d": 2090,
  "\u5ba0\u7231": 2091,
  "\u4f4e\u8c03": 2092,
  "\u6000\u5b55": 2093,
  "\u662f\u4f60": 2094,
  "\u9ad8\u8003": 2095,
  "\u514b\u82cf\u9c81": 2096,
  "\u2581\u5e9f\u67f4": 2097,
  "\u51fa\u8f68": 2098,
  "\u5ba0\u5983": 2099,
  "\u89c2\u5f71": 2100,
  "\u2581\u8111": 2101,
  "\u6536\u5bb9": 2102,
  "BO": 2103,
  "\u514b\u65af": 2104,
  "\u62ff\u634f": 2105,
  "\u51f9\u51f8": 2106,
  "\u9274\u5b9d": 2107,
  "\u4e00\u5fc3": 2108,
  "\u7b28\u86cb": 2109,
  "\u2581\u661f\u8fb0": 2110,
  "\u2581\u79d1\u6280": 2111,
  "\u2581\u6700\u540e\u7684": 2112,
  "\u2581\u54c8\u5229\u6ce2\u7279": 2113,
  "\u2581\u7a7f\u8d8a\u4e03\u96f6": 2114,
  "\u2581\u6b8b": 2115,
  "\u2581\u6c5f": 2116,
  "\u2581\u6d1b": 2117,
  "\u6d17\u767d": 2118,
  "\u9ec4\u91d1": 2119,
  "\u53c8\u98d2": 2120,
  "\u9762\u677f": 2121,
  "\u9996\u957f": 2122,
  "\u2581\u516c": 2123,
  "\u5c3d\u5934": 2124,
  "\u5f3a\u8005": 2125,
  "\u6b65\u6b65": 2126,
  "\u2581\u5965": 2127,
  "\u8d85\u51e1": 2128,
  "\u5e74\u4ee3\u6587": 2129,
  "\u5728\u4e0a": 2130,
  "\u6240\u4ee5": 2131,
  "\u8bb0\u4e8b": 2132,
  "\u2581\u4e0d\u6b7b": 2133,
  "\u2581\u5c01\u795e": 2134,
  "\u2581\u6211\u4e3a": 2135,
  "\u2581\u503e": 2136,
  "\u2581\u8bb8": 2137,
  "\u4e4b\u5929": 2138,
  "\u9ed1\u5316\u4e86": 2139,
  "\u2581\u8fdc": 2140,
  "\u57fa\u5efa": 2141,
  "\u660e\u660e": 2142,
  "\u6709\u4eba": 2143,
  "\u2581\u4eba\u7c7b": 2144,
  "\u2581\u75c5": 2145,
  "\u51e4\u51f0": 2146,
  "\u524d\u7ebf": 2147,
  "\u6b66\u5668": 2148,
  "\u2581\u66ff\u5ac1": 2149,
  "\u4e00\u4e0b": 2150,
  "\u5988\u54aa": 2151,
  "\u660e\u6708": 2152,
  "\u72c2\u60f3": 2153,
  "\u2581\u5492\u56de": 2154,
  "\u56db\u5929\u707e": 2155,
  "\u2581\u6c42": 2156,
  "\u60c5\u6df1": 2157,
  "\u5c71\u6cb3": 2158,
  "\u2581\u76db\u4e16": 2159,
  "\u4e4b\u661f": 2160,
  "\u5bcc\u8c6a": 2161,
  "\u2581\u4f4d\u9762": 2162,
  "\u2581\u6df1\u6e0a": 2163,
  "\u2581\u767d\u6708\u5149": 2164,
  "\u7684\u81ea\u6211\u4fee\u517b": 2165,
  "\u88c5\u4e86": 2166,
  "\u900f\u89c6": 2167,
  "\u7adf\u662f\u6211\u81ea\u5df1": 2168,
  "\u7edd\u7f8e": 2169,
  "\u9057\u61be": 2170,
  "\u6700\u540e\u7684": 2171,
  "\u2581\u82f1\u96c4\u8054\u76df\u4e4b": 2172,
  "\u2581\u4e71": 2173,
  "\u505a\u4e2a": 2174,
  "\u2581\u7f8e\u98df": 2175,
  "\u2581\u51cc": 2176,
  "\u5979\u662f": 2177,
  "\u6fc0\u6d3b": 2178,
  "\u7684\u4e8b": 2179,
  "\u9644\u8eab": 2180,
  "\u9a7e\u5230": 2181,
  "\u2581\u4e61\u6751": 2182,
  "\u2581\u5a07": 2183,
  "\u2581\u73a9": 2184,
  "\u5080\u5121": 2185,
  "\u2581\u4eba\u95f4": 2186,
  "\u6211\u65e0\u654c": 2187,
  "\u76ef\u4e0a\u4e86": 2188,
  "\u2581\u6267": 2189,
  "\u4f59\u751f": 2190,
  "\u5feb\u9012": 2191,
  "\u8d77\u6765": 2192,
  "\u90fd\u4e0d": 2193,
  "\u2581\u6218\u9524": 2194,
  "\u4eac\u57ce": 2195,
  "\u751c\u5ba0": 2196,
  "\u5728\u4e00\u8d77": 2197,
  "\u8bad\u7ec3\u5bb6": 2198,
  "\u7684\u90a3\u4e9b\u4e8b": 2199,
  "\u2581\u7389": 2200,
  "\u5d29\u4e86": 2201,
  "\u60c5\u7f18": 2202,
  "\u6c38\u751f": 2203,
  "\u2581\u5982\u4f55": 2204,
  "\u2581\u5c31\u7b97": 2205,
  "\u2581\u5c01": 2206,
  "\u6311\u6218": 2207,
  "\u673a\u5668": 2208,
  "\u2581\u613f": 2209,
  "\u751f\u6b7b": 2210,
  "\u767d\u6bdb": 2211,
  "\u2581\u6b7b\u795e": 2212,
  "\u521b\u4e1a": 2213,
  "\u8be5\u600e\u4e48\u529e": 2214,
  "\u4e0d\u53ef\u80fd\u8fd9\u4e48": 2215,
  "\u7075\u6839": 2216,
  "\u4e8c\u4e09\u4e8b": 2217,
  "\u5669\u68a6": 2218,
  "\u5927\u53d4": 2219,
  "\u5e03\u6797": 2220,
  "\u5e08\u5f1f": 2221,
  "\u4e0a\u53f8": 2222,
  "\u5e7d\u7075": 2223,
  "\u65a9\u5996": 2224,
  "\u6cbb\u6108": 2225,
  "\u7684\u7b2c": 2226,
  "\u8d70\u5411": 2227,
  "\u604b\u7231\u7269\u8bed": 2228,
  "\u2581\u50b2": 2229,
  "\u7ec8\u6781": 2230,
  "\u7f8e\u7537": 2231,
  "\u2581\u6211\u90fd": 2232,
  "\u56fd\u8fd0": 2233,
  "\u76db\u4e16": 2234,
  "\u542f\u793a\u5f55": 2235,
  "\u68a6\u60f3": 2236,
  "\u4e0d\u60f3\u88ab": 2237,
  "\u2581\u5f00\u5c40\u4e00": 2238,
  "\u4e5f\u4e0d": 2239,
  "\u5fc5\u987b": 2240,
  "\u7537\u88c5": 2241,
  "\u2581\u4e00\u4eba\u4e4b\u4e0b": 2242,
  "\u2581\u5b8c": 2243,
  "\u771f\u76f8": 2244,
  "\u54e5\u5e03\u6797": 2245,
  "\u7684\u4fee\u4ed9": 2246,
  "\u4e8b\u52a1": 2247,
  "\u52c7\u95ef": 2248,
  "\u5974\u96b6": 2249,
  "\u6559\u6388": 2250,
  "\u2581\u5a31\u4e50\u5708": 2251,
  "\u2581\u8fd8": 2252,
  "\u2581\u98df": 2253,
  "\u5a18\u4eb2": 2254,
  "\u6a2a\u884c": 2255,
  "\u9972\u517b": 2256,
  "\u2581\u7075\u9b42": 2257,
  "\u2581\u5c11": 2258,
  "\u2581\u672b": 2259,
  "\u2581\u7eaf": 2260,
  "\u517b\u8001": 2261,
  "\u52c7\u58eb": 2262,
  "\u5371\u9669": 2263,
  "\u2581\u53ea\u60f3": 2264,
  "\u5b59\u609f\u7a7a": 2265,
  "\u6211\u7684\u7cfb\u7edf": 2266,
  "\u2581\u7a7f\u8d8a\u53e4\u4ee3": 2267,
  "\u4e5f\u60f3": 2268,
  "\u5c5e\u4e8e": 2269,
  "\u6743\u81e3": 2270,
  "\u51f6\u731b": 2271,
  "\u5f00\u4e86": 2272,
  "\u6027\u8f6c": 2273,
  "\u2581\u5206\u624b\u540e": 2274,
  "\u2581\u7a7f\u4e66\u4e03\u96f6": 2275,
  "18": 2276,
  "\u644a\u724c": 2277,
  "\u2581\u59d0\u59d0": 2278,
  "\u2581\u8c01\u8bf4": 2279,
  "\u4e16\u754c\u7684\u6211": 2280,
  "\u2581\u519b": 2281,
  "\u2581\u6210": 2282,
  "\u529f\u5fb7": 2283,
  "\u6587\u5b66": 2284,
  "\u7687\u53d4": 2285,
  "\u2581\u6211\u628a": 2286,
  "\u7b7e\u5230\u7cfb\u7edf": 2287,
  "\u2581\u5c06": 2288,
  "\u2581\u6bcf": 2289,
  "\u6a31\u82b1": 2290,
  "\u6bd2\u5983": 2291,
  "\u4e4b\u5f00\u5c40": 2292,
  "\u4eba\u4e86": 2293,
  "\u5408\u6b22": 2294,
  "\u5929\u7a7a": 2295,
  "\u6211\u505a": 2296,
  "\u65b0\u751f": 2297,
  "\u6211\u6210\u4e3a": 2298,
  "\u2581\u96e8": 2299,
  "\u5546\u4eba": 2300,
  "\u591a\u5b50\u591a\u798f": 2301,
  "\u56fe\u4e66": 2302,
  "\u5815\u843d": 2303,
  "\u7cdf\u7cd5": 2304,
  "\u2581\u4e66": 2305,
  "\u2581\u8981": 2306,
  "\u2581\u660e\u672b": 2307,
  "\u5728\u5f02\u754c": 2308,
  "\u2581\u6211\u7684\u4e16\u754c": 2309,
  "\u4e4b\u4e00": 2310,
  "\u4e71\u6740": 2311,
  "\u667a\u80fd": 2312,
  "\u2581\u6587\u5a31": 2313,
  "\u5230\u5f02\u4e16\u754c": 2314,
  "\u2581\u955c": 2315,
  "\u5a36\u4e86": 2316,
  "\u5c81\u534a": 2317,
  "\u2581\u901a": 2318,
  "\u560e\u560e": 2319,
  "\u661f\u795e": 2320,
  "\u8fc7\u5206": 2321,
  "\u8fd8\u8981": 2322,
  "\u7684\u7231\u60c5": 2323,
  "\u4e16\u754c\u91cc\u7684": 2324,
  "\u6211\u6709\u4e00\u4e2a": 2325,
  "\u9006\u8f6c": 2326,
  "\u2581\u6211\u7528": 2327,
  "\u592a\u5b50\u5983": 2328,
  "....": 2329,
  "\u2581\u76d7": 2330,
  "\u4e0d\u5982": 2331,
  "\u5723\u4f53": 2332,
  "\u5d29\u4e09": 2333,
  "\u2581\u6211\u7684\u5973\u53cb": 2334,
  "\u2581\u7a7f\u8d8a\u517d\u4e16": 2335,
  "\u2581\u540e": 2336,
  "\u4e5d\u5c3e": 2337,
  "\u5929\u5730": 2338,
  "\u8d70\u4e0a": 2339,
  "\u8eab\u4e3a": 2340,
  "\u91cc\u5f53": 2341,
  "\u5927\u5e08\u5144": 2342,
  "\u2581\u65ad": 2343,
  "\u2581\u6f2b": 2344,
  "\u7480\u74a8": 2345,
  "\u2581\u79bb\u5a5a": 2346,
  "\u517b\u6210\u8ba1\u5212": 2347,
  "\u2581\u4eca": 2348,
  "\u4ee5\u4e3a": 2349,
  "\u5374\u88ab": 2350,
  "\u8272\u7684": 2351,
  "\u5229\u4e9a": 2352,
  "\u7237\u7684": 2353,
  "\u751c\u871c": 2354,
  "\u7ec8\u4e8e": 2355,
  "\u2581\u4e8e": 2356,
  "\u2581\u6e38": 2357,
  "\u4e07\u65cf": 2358,
  "\u5168\u96c6": 2359,
  "\u2581\u5047\u5982": 2360,
  "\u4e3a\u738b": 2361,
  "\u65e0\u60c5": 2362,
  "\u7834\u9632": 2363,
  "\u2581\u7ea6\u6218": 2364,
  "\u2581\u9646": 2365,
  "\u4f17\u751f": 2366,
  "\u5e74\u540e": 2367,
  "\u65af\u7684": 2368,
  "\u91cf\u5b50": 2369,
  "\u2581\u517d\u4e16": 2370,
  "\u2581\u9a91\u58eb": 2371,
  "\u5927\u9b54\u738b": 2372,
  "\u2581\u94e0\u7532": 2373,
  "\u2581\u6211\u5c31\u662f": 2374,
  "\u53a8\u5a18": 2375,
  "\u53c2\u52a0": 2376,
  "\u5f53\u4e2a": 2377,
  "\u5f97\u5230": 2378,
  "\u6536\u96c6": 2379,
  "\u65e0\u6240": 2380,
  "\u2581\u970d\u683c\u6c83\u8328": 2381,
  "\u5408\u6210": 2382,
  "\u7ed1\u67b6": 2383,
  "\u56de\u5fc6\u5f55": 2384,
  "\u8d44\u672c\u5bb6": 2385,
  "\u5927\u7684": 2386,
  "\u604b\u4eba": 2387,
  "\u90fd\u6709": 2388,
  "\u2581\u62dc": 2389,
  "\u4e4b\u9f99": 2390,
  "\u9664\u9b54": 2391,
  "\u2581\u672b\u4e16\u964d\u4e34": 2392,
  "\u4ea4\u6362": 2393,
  "\u57fa\u5730": 2394,
  "\u5929\u964d": 2395,
  "\u6210\u763e": 2396,
  "\u2581\u7075\u5f02": 2397,
  "\u4e0d\u6b63\u7ecf": 2398,
  "\u503e\u5929\u4e0b": 2399,
  "\u8bfb\u5fc3\u672f": 2400,
  "\u4e1c\u65b9": 2401,
  "\u5728\u624b": 2402,
  "\u5996\u9b54": 2403,
  "\u5b97\u5e08": 2404,
  "\u5ba0\u6211": 2405,
  "\u6218\u7eaa": 2406,
  "\u642c\u7a7a": 2407,
  "\u840c\u59bb": 2408,
  "\u91cd\u56de": 2409,
  "\u2581\u5730\u72f1": 2410,
  "\u559c\u6b22\u4f60": 2411,
  "\u2581\u5b66": 2412,
  "\u4e2d\u4e8c": 2413,
  "\u7ed9\u4f60": 2414,
  "\u7684\u5e78\u798f": 2415,
  "\u8fc7\u6765": 2416,
  "\u2581\u5927\u5b8b": 2417,
  "\u2581\u6e38\u620f\u738b": 2418,
  "\u8fd9\u4e2a\u4e16\u754c": 2419,
  "\u2581\u4f55": 2420,
  "\u2581\u8c22": 2421,
  "\u4e00\u8def": 2422,
  "\u548c\u4ed6\u7684": 2423,
  "\u65e0\u9650\u6d41": 2424,
  "\u5929\u795e": 2425,
  "\u5b9e\u5f55": 2426,
  "\u7684\u6211\u6210\u4e86": 2427,
  "\u5e72\u4e86": 2428,
  "\u67ad\u96c4": 2429,
  "\u94f6\u6cb3": 2430,
  "\u2581\u6211\u7684\u9752\u6625": 2431,
  "\u5f3a\u5316": 2432,
  "\u6697\u5f71": 2433,
  "\u793e\u755c": 2434,
  "\u97f3\u4e50": 2435,
  "\u2581\u8bf8": 2436,
  "\u53cc\u4fee": 2437,
  "\u9996\u8f85": 2438,
  "\u2581\u5f71": 2439,
  "\u4e03\u4e2a": 2440,
  "\u4e0e\u4f60": 2441,
  "\u2581\u522b\u4eba": 2442,
  "\u2581\u5bb6\u65cf": 2443,
  "\u4faf\u5e9c": 2444,
  "\u865a\u62df": 2445,
  "\u9b42\u7a7f": 2446,
  "\u2581\u540d\u67ef": 2447,
  "\u4e00\u5251": 2448,
  "\u8bf4\u6211": 2449,
  "\u98ce\u6d41": 2450,
  "\u2581\u59b9\u59b9": 2451,
  "\u6211\u89c9\u9192\u4e86": 2452,
  "\u2581\u5373": 2453,
  "\u2581\u8bf1": 2454,
  "\u544a\u8bc9": 2455,
  "\u6536\u5f92": 2456,
  "\u2581\u7a7f\u4e66\u4e4b": 2457,
  "\u4e0d\u77e5": 2458,
  "\u2581\u5973\u4e3b": 2459,
  "\u597d\u4e86": 2460,
  "\u4ee3\u7406\u4eba": 2461,
  "\u4f60\u7ba1\u8fd9\u53eb": 2462,
  "\u2581\u6b63": 2463,
  "\u540d\u5b57": 2464,
  "\u7535\u7ade": 2465,
  "\u8001\u516d": 2466,
  "\u804c\u573a": 2467,
  "\u865a\u7a7a": 2468,
  "\u8718\u86db": 2469,
  "\u2581\u5f20": 2470,
  "\u2581\u70bc": 2471,
  "\u4e4b\u5973": 2472,
  "\u5b9d\u5b9d": 2473,
  "\u9003\u79bb": 2474,
  "\u5a5a\u591c": 2475,
  "\u6211\u60f3": 2476,
  "\u7239\u5730": 2477,
  "\u81ea\u6551": 2478,
  "\u6211\u6210\u4e3a\u4e86": 2479,
  "\u2581\u90fd\u91cd\u751f\u4e86": 2480,
  "\u2581\u6765": 2481,
  "\u5496\u5561": 2482,
  "\u2581\u517b": 2483,
  "\u7236\u4eb2": 2484,
  "\u9694\u58c1": 2485,
  "\u4e8b\u52a1\u6240": 2486,
  "\u6765\u5230\u4e86": 2487,
  "\u2581\u4f60\u7684": 2488,
  "\u4ec0\u4e48\u7684": 2489,
  "\u626e\u7537\u88c5": 2490,
  "\u2581\u5173\u4e8e\u6211\u5728": 2491,
  "\u2581\u98de": 2492,
  "\u53e6\u4e00\u4e2a": 2493,
  "\u7684\u6211\u8981": 2494,
  "\u2581\u6ee1": 2495,
  "\u4e00\u573a": 2496,
  "\u2581\u603b": 2497,
  "\u2581\u7981": 2498,
  "\u5373\u662f": 2499,
  "\u5973\u5a7f": 2500,
  "\u6211\u4ece": 2501,
  "\u793e\u6050": 2502,
  "\u822a\u6d77": 2503,
  "\u90fd\u8981": 2504,
  "\u9b54\u4eba": 2505,
  "40": 2506,
  "\u2581\u9010": 2507,
  "\u53cc\u751f": 2508,
  "\u63a2\u9669": 2509,
  "\u2581\u534e\u5a31": 2510,
  "\u2581\u97e9\u5a31": 2511,
  "\u2581\u4f5b": 2512,
  "\u2581\u7b49": 2513,
  "\u4f60\u597d": 2514,
  "\u6539\u5ac1": 2515,
  "\u2581\u673a\u68b0": 2516,
  "\u2581\u5e0c": 2517,
  "\u960e\u738b": 2518,
  "\u5403\u8f6f\u996d": 2519,
  "\u65b0\u4e16\u754c": 2520,
  "\u2581\u51e1\u4eba\u4fee\u4ed9": 2521,
  "\u2581\u738b\u8005\u8363\u8000": 2522,
  "\u2581\u5b88\u62a4": 2523,
  "\u5fb7\u5c9b": 2524,
  "\u6076\u5973": 2525,
  "\u614c\u4e86": 2526,
  "\u559c\u6b22\u6211": 2527,
  "\u65c5\u884c\u8005": 2528,
  "\u7cfb\u7edf\u8ba9\u6211": 2529,
  "\u4e9a\u4eba": 2530,
  "\u7684\u6211\u4e0e": 2531,
  "\u65e0\u9650\u8fdb\u5316": 2532,
  "\u2581\u5077": 2533,
  "\u2581\u7b11": 2534,
  "\u7ffb\u4e86": 2535,
  "\u5730\u4e0b\u57ce": 2536,
  "\u7537\u4e8c": 2537,
  "\u8fce\u5a36": 2538,
  "\u9886\u8bc1": 2539,
  "\u2581\u4ed9\u5b50": 2540,
  "\u4e00\u62f3": 2541,
  "\u5143\u7d20": 2542,
  "\u5deb\u5973": 2543,
  "\u2581\u6076\u6bd2\u5973\u914d": 2544,
  "\u2581\u547d": 2545,
  "\u2581\u5f03": 2546,
  "\u2581\u6d3b": 2547,
  "\u51b7\u9762": 2548,
  "\u2581\u5e7b\u60f3\u4e61": 2549,
  "\u597d\u611f": 2550,
  "\u7684\u9ed1": 2551,
  "\u2581\u795e\u5947\u5b9d\u8d1d\u4e4b": 2552,
  "\u2581\u6728": 2553,
  "\u4e4b\u524d": 2554,
  "\u5012\u9709": 2555,
  "\u638c\u5fc3": 2556,
  "\u9e92\u9e9f": 2557,
  "\u2581\u6e2f\u7efc": 2558,
  "\u8be5\u5982\u4f55": 2559,
  "\u8dea\u6c42\u6211": 2560,
  "\u2581\u7eff": 2561,
  "\u6bcd\u4eb2": 2562,
  "\u5927\u660e\u661f": 2563,
  "\u2581\u8bf8\u5929\u4e07\u754c": 2564,
  "\u2581\u8def": 2565,
  "\u66d9\u5149": 2566,
  "\u6df1\u60c5": 2567,
  "\u9633\u5149": 2568,
  "\u2581\u540c": 2569,
  "\u5929\u9a84": 2570,
  "\u5fc3\u7406": 2571,
  "\u970d\u683c\u6c83\u5179": 2572,
  "\u9493\u9c7c": 2573,
  "\u600e\u4e48\u5c31": 2574,
  "\u7cbe\u795e\u75c5\u9662": 2575,
  "\u5b97\u4e3b": 2576,
  "\u5f39\u5e55": 2577,
  "oss": 2578,
  "\u2581\u53ea\u6709": 2579,
  "\u5723\u676f\u6218\u4e89": 2580,
  "!?": 2581,
  "\u2581\u5b9e": 2582,
  "\u2581\u628a": 2583,
  "\u2581\u8d70": 2584,
  "\u4fdd\u5b89": 2585,
  "\u66b4\u51fb": 2586,
  "\u8d35\u5983": 2587,
  "\u519b\u706b": 2588,
  "\u8ffd\u592b": 2589,
  "\u2581\u68a6\u5e7b": 2590,
  "\u2581\u9ad8\u51b7": 2591,
  "\u2581\u5b88": 2592,
  "\u4e4b\u5927": 2593,
  "\u53ea\u597d": 2594,
  "\u5de8\u9f99": 2595,
  "\u6709\u6bd2": 2596,
  "\u68ee\u6797": 2597,
  "\u6211\u53d8\u6210\u4e86": 2598,
  "\u2581\u8ba9": 2599,
  "\u6740\u622e": 2600,
  "\u2581\u8d85\u80fd": 2601,
  "\u2581\u8fd9\u4e2a\u4e16\u754c": 2602,
  "\u6446\u644a": 2603,
  "\u9b54\u9053": 2604,
  "\u2581\u5929\u4f7f": 2605,
  "\u2581\u5973\u53cb": 2606,
  "\u2581NBA": 2607,
  "\u5f02\u4e16\u754c\u7684": 2608,
  "\u2581\u5ba0": 2609,
  "\u2581\u5fb7": 2610,
  "\u2581\u9057": 2611,
  "\u4e0e\u6211": 2612,
  "\u6492\u5a07": 2613,
  "\u767e\u5408": 2614,
  "\u81ea\u7136": 2615,
  "\u8d85\u5f3a": 2616,
  "\u2581\u7384\u5b66": 2617,
  "\u2581\u90a3\u5e74": 2618,
  "\u9ad8\u4e2d\u751f": 2619,
  "\u4e86\u600e\u4e48\u529e": 2620,
  "\u2581\u5f52": 2621,
  "\u5976\u5976": 2622,
  "\u7edd\u671b": 2623,
  "\u2581\u4e3b\u89d2": 2624,
  "\u6d85\u69c3": 2625,
  "\u9192\u6765": 2626,
  "\u2581\u5951\u7ea6": 2627,
  "\u5bcc\u4e8c\u4ee3": 2628,
  "\u5e72\u561b": 2629,
  "\u7ea2\u989c": 2630,
  "\u9a78\u9a6c": 2631,
  "\u2581\u7f8e\u5973": 2632,
  "\u2581\u95ee": 2633,
  "\u4e86\u4e00": 2634,
  "\u8352\u5e74": 2635,
  "\u98ce\u66b4": 2636,
  "\u4e86\u6211\u7684": 2637,
  "\u2581\u91cd\u751f\u4e3a": 2638,
  "\u4e4b\u4e66": 2639,
  "\u592a\u591a": 2640,
  "\u79e9\u5e8f": 2641,
  "\u2581\u4eae\u5251": 2642,
  "\u609f\u6027\u9006\u5929": 2643,
  "\u7075\u6c14\u590d\u82cf": 2644,
  "\u4e1c\u897f": 2645,
  "\u5de5\u5177": 2646,
  "\u6559\u4e3b": 2647,
  "\u9003\u751f": 2648,
  "\u968f\u673a": 2649,
  "197": 2650,
  "\u6211\u53ea\u662f": 2651,
  "\u4fee\u4ed9\u4e16\u754c": 2652,
  "\u4eec\u90fd": 2653,
  "\u5e26\u9886": 2654,
  "\u2581\u516d\u96f6": 2655,
  "\u2581\u7edd\u8272": 2656,
  "\u2581\u8230\u957f": 2657,
  "\u2581\u6e90": 2658,
  "\u5929\u540e": 2659,
  "\u6559\u7236": 2660,
  "\u65e0\u6570": 2661,
  "\u6b63\u786e": 2662,
  "\u2581\u63d0\u74e6\u7279": 2663,
  "60": 2664,
  "\u4e94\u4e2a": 2665,
  "\u5341\u4e09": 2666,
  "\u5510\u95e8": 2667,
  "\u2581\u8d85\u51e1": 2668,
  "\u7ed1\u5b9a\u4e86": 2669,
  "\u2581\u753b": 2670,
  "\u5168\u6c11": 2671,
  "\u517c\u804c": 2672,
  "\u548c\u5e73": 2673,
  "\u6280\u672f": 2674,
  "\u7ea2\u5c18": 2675,
  "\u57f9\u517b": 2676,
  "\u5947\u7f18": 2677,
  "\u5984\u60f3": 2678,
  "\u90e8\u843d": 2679,
  "\u2581\u62a5\u544a": 2680,
  "\u4e0d\u5230": 2681,
  "\u4f50\u52a9": 2682,
  "\u5251\u58eb": 2683,
  "\u54f2\u5b66": 2684,
  "\u65f6\u5019": 2685,
  "\u2581\u5e08\u5c0a": 2686,
  "\u500d\u8fd4\u8fd8": 2687,
  "\u6709\u4e86": 2688,
  "\u8fb9\u7f18": 2689,
  "\u90e1\u4e3b": 2690,
  "\u2581\u6361\u5230": 2691,
  "\u2581\u6a21\u62df": 2692,
  "\u2581\u604b": 2693,
  "\u4ed9\u4fa0": 2694,
  "\u53c8\u64a9": 2695,
  "\u5929\u9f99": 2696,
  "\u5b64\u72ec": 2697,
  "\u7483\u6708": 2698,
  "\u7a7f\u8d8a\u540e": 2699,
  "\u5efa\u7b51": 2700,
  "\u9b54\u7269": 2701,
  "\u2581\u5973\u513f": 2702,
  "\u5d29\u574f\u4e09": 2703,
  "\u2581\u5e74": 2704,
  "\u5bfc\u5e08": 2705,
  "\u7237\u7237": 2706,
  "\u2581\u9876\u7ea7": 2707,
  "\u6709\u7a7a\u95f4": 2708,
  "\u2581\u9020": 2709,
  "\u2581\u9999": 2710,
  "\u624d\u80fd": 2711,
  "\u7a7f\u5230": 2712,
  "\u7ed3\u675f": 2713,
  "\u2581\u578b\u6708": 2714,
  "\u2581\u90aa\u795e": 2715,
  "\u2581\u665a": 2716,
  "\u539f\u59cb": 2717,
  "\u2581\u6700\u540e": 2718,
  "\u2581\u76f8\u4eb2": 2719,
  "\u7ee7\u627f\u4eba": 2720,
  "\u4e4b\u4e2d": 2721,
  "\u6253\u7206": 2722,
  "\u6539\u5199": 2723,
  "\u7ea0\u7f20": 2724,
  "\u95ef\u8361": 2725,
  "\u2581\u59bb\u5b50": 2726,
  "\u600e\u4e48\u4f1a": 2727,
  "BOSS": 2728,
  "\u2581\u5fae": 2729,
  "\u81f3\u4e0a": 2730,
  "\u9c81\u8fc5": 2731,
  "\u2581\u50b2\u5a07": 2732,
  "\u56fe\u4e66\u9986": 2733,
  "\u8bfb\u5fc3\u540e": 2734,
  "\u8fdb\u51fb\u7684": 2735,
  "\u4e86\u5427": 2736,
  "\u4e94\u5e74": 2737,
  "\u4f7f\u7528": 2738,
  "\u66b4\u6253": 2739,
  "\u7075\u5e08": 2740,
  "\u2581\u65e0\u9650\u6d41": 2741,
  "\u6c38\u8fdc": 2742,
  "\u8f7b\u70b9": 2743,
  "\u2581\u5973\u795e": 2744,
  "\u2581\u9648": 2745,
  "\u5a5a\u59fb": 2746,
  "\u6240\u6b32\u4e3a": 2747,
  "\u65e5\u5e38\u751f\u6d3b": 2748,
  "\u5149\u73af": 2749,
  "\u53a8\u795e": 2750,
  "\u5510\u4e09": 2751,
  "\u5c0f\u53d4": 2752,
  "\u5c31\u88ab": 2753,
  "\u2581\u91cd\u542f": 2754,
  "\u5c0f\u961f": 2755,
  "\u7684\u4e0d": 2756,
  "\u7ea6\u5b9a": 2757,
  "\u949f\u60c5": 2758,
  "\u2581\u75af\u4e86": 2759,
  "\u5168\u6751": 2760,
  "\u6211\u5c06": 2761,
  "\u8537\u8587": 2762,
  "\u2581\u4e0d\u8981": 2763,
  "\u89c9\u9192\u540e": 2764,
  "\u7a7f\u8d8a\u5230\u4e86": 2765,
  "\u2581\u5c18": 2766,
  "\u4f17\u795e": 2767,
  "\u4f60\u4e5f": 2768,
  "\u8f88\u5b50": 2769,
  "\u7537\u670b\u53cb": 2770,
  "\u2581\u4e3b": 2771,
  "\u2581\u65e0\u4e0a": 2772,
  "\u5f88\u6b63\u5e38": 2773,
  "\u2581\u5c38": 2774,
  "\u5973\u5b50": 2775,
  "\u75c5\u6bd2": 2776,
  "\u7f62\u4e86": 2777,
  "\u2581\u5979\u4eec": 2778,
  "\u4fee\u4ed9\u4f20": 2779,
  "\u2581\u5feb": 2780,
  "\u2581\u6e23": 2781,
  "\u6dee\u8339": 2782,
  "\u2581\u5728\u4e0b": 2783,
  "\u2581\u6211\u4e00": 2784,
  "\u2581\u7279\u79cd\u5175": 2785,
  "\u6210\u4e3a\u6700\u5f3a": 2786,
  "\u5408\u96c6": 2787,
  "\u6587\u5316": 2788,
  "\u2581\u8db3\u7403": 2789,
  "\u2581\u9ad8\u8003": 2790,
  "\u7279\u79cd\u5175": 2791,
  "\u804a\u658b": 2792,
  "\u2581\u6211\u7684\u7cfb\u7edf": 2793,
  "49": 2794,
  "\u56de\u5934": 2795,
  "\u5bb6\u4ea7": 2796,
  "\u2581\u5ac1\u7ed9": 2797,
  "\u2581\u5438\u8840\u9b3c": 2798,
  "\u2581\u5b85": 2799,
  "\u4f60\u4e86": 2800,
  "\u5c0f\u5b50": 2801,
  "\u5e94\u8be5": 2802,
  "\u6211\u4e5f": 2803,
  "\u7535\u5b50": 2804,
  "\u2581\u592b\u4eba": 2805,
  "\u8d62\u9ebb\u4e86": 2806,
  "\u5883\u754c": 2807,
  "\u613f\u671b": 2808,
  "\u9ed1\u624b": 2809,
  "\u2581\u6211\u5c31": 2810,
  "\u79bb\u5a5a\u540e": 2811,
  "\u4e0d\u706d": 2812,
  "\u5e7f\u544a": 2813,
  "\u72e0\u72e0": 2814,
  "\u4e0d\u8fc7\u5206": 2815,
  "\u4e0d\u673d": 2816,
  "\u2581\u8ff7\u96fe": 2817,
  "\u5f53\u8214\u72d7": 2818,
  "\u9001\u5916\u5356": 2819,
  "\u4ee3\u7801": 2820,
  "\u5b89\u5168": 2821,
  "\u644a\u724c\u4e86": 2822,
  "\u7684\u59b9\u59b9": 2823,
  "\u7684\u5d1b\u8d77": 2824,
  "\u2581\u5f02\u754c\u4e4b": 2825,
  "\u5e73\u884c\u4e16\u754c": 2826,
  "\u2581\u4e16": 2827,
  "\u2581\u9189": 2828,
  "\u590d\u5408": 2829,
  "\u7f81\u7eca": 2830,
  "\u4f5c\u54c1": 2831,
  "\u4f7f\u5f92": 2832,
  "\u5947\u9047": 2833,
  "\u6982\u5ff5": 2834,
  "\u2581\u590d\u4ec7": 2835,
  "\u2581\u9006\u88ad": 2836,
  "\u5f00\u5c40\u626e\u6f14": 2837,
  "\u6e38\u620f\u4e16\u754c": 2838,
  "\u5f3a\u52bf": 2839,
  "\u2581\u7f8e\u4eba": 2840,
  "\u9047\u89c1\u4f60": 2841,
  "\u2581\u8e0f": 2842,
  "\u4ed6\u53c8": 2843,
  "\u70b8\u4e86": 2844,
  "\u8d22\u5bcc": 2845,
  "\u98ce\u6c34": 2846,
  "\u2581\u602a\u7269": 2847,
  "\u53ea\u4f1a": 2848,
  "\u540c\u884c": 2849,
  "\u5c0f\u5976": 2850,
  "\u60c5\u4eba": 2851,
  "\u8f6e\u773c": 2852,
  "\u2581\u81f4\u547d": 2853,
  "\u574f\u5973\u4eba": 2854,
  "\u795e\u8c6a\u7cfb\u7edf": 2855,
  "\u5415\u5e03": 2856,
  "\u2581\u6211\u4ece": 2857,
  "\u8f6c\u751f\u6210": 2858,
  "\u2581\u8d85\u795e\u5b66\u9662\u4e4b": 2859,
  "\u610f\u5fd7": 2860,
  "\u620f\u7cbe": 2861,
  "\u6211\u4e86": 2862,
  "\u72d0\u5a18": 2863,
  "\u7f51\u604b": 2864,
  "\u53cd\u6d3e\u7684": 2865,
  "\u7ea7\u5929\u8d4b": 2866,
  "\u4e09\u5341": 2867,
  "\u653e\u5f03": 2868,
  "\u6b22\u4e50": 2869,
  "\u5c0f\u53ef\u601c": 2870,
  "\u5f00\u59cb\u5f53": 2871,
  "\u9f99\u50b2\u5929": 2872,
  "\u2581\u91cd\u751f\u672b\u4e16": 2873,
  "\u2581\u7a7f\u8d8a\u5f02\u4e16\u754c": 2874,
  "\u4e50\u5b50": 2875,
  "\u4f60\u5374": 2876,
  "\u5723\u4eba": 2877,
  "\u6740\u795e": 2878,
  "\u4e0d\u8fc7\u5206\u5427": 2879,
  "\u2581\u53f2\u4e0a\u6700\u5f3a": 2880,
  "\u2581\u624b": 2881,
  "\u72c2\u9b54": 2882,
  "\u2581\u50f5\u5c38": 2883,
  "\u4e0d\u540c": 2884,
  "\u6076\u4eba": 2885,
  "\u7edf\u6cbb": 2886,
  "\u884c\u52a8": 2887,
  "\u2581\u666e\u901a": 2888,
  "\u2581\u75af\u72c2": 2889,
  "\u5d29\u574f\u4e16\u754c": 2890,
  "\u2581\u91cd\u751f\u4e4b\u6211\u662f": 2891,
  "\u2581\u7b26": 2892,
  "\u2581\u8de8": 2893,
  "\u4e4b\u4ece": 2894,
  "\u4fe1\u4ef0": 2895,
  "\u517b\u5a03": 2896,
  "\u592b\u59bb": 2897,
  "\u88c5\u5907": 2898,
  "\u2581\u5f00\u5c40\u83b7\u5f97": 2899,
  "\u56fe\u9274": 2900,
  "\u2581\u738b\u5983": 2901,
  "\u2581\u6d77\u8d3c\u738b": 2902,
  "\u2581\u707e": 2903,
  "\u54ed\u7740": 2904,
  "\u7ed3\u679c": 2905,
  "\u2581\u6211\u60f3": 2906,
  "\u2581\u6c11": 2907,
  "\u8fd8\u5728": 2908,
  "\u2581\u6211\u4eec\u7684": 2909,
  "\u4e00\u540d": 2910,
  "\u65b0\u624b": 2911,
  "\u7684\u5149": 2912,
  "\u795e\u5973": 2913,
  "\u79bb\u8c31": 2914,
  "\u80de\u80ce": 2915,
  "\u2581\u8fd9\u662f": 2916,
  "\u5c0f\u7cbe\u7075": 2917,
  "\u5165\u6000": 2918,
  "\u592a\u96be": 2919,
  "\u60ca\u9b42": 2920,
  "\u611f\u60c5": 2921,
  "\u6211\u8ba9": 2922,
  "\u6b7b\u7684": 2923,
  "\u732e\u796d": 2924,
  "\u767b\u57fa": 2925,
  "\u89e3\u9501": 2926,
  "\u2581\u9b54\u9053": 2927,
  "\u9b54\u6cd5\u4e16\u754c": 2928,
  "\u2581\u4e9a": 2929,
  "\u517b\u7684": 2930,
  "\u7684\u590d\u4ec7": 2931,
  "\u7834\u4ea7": 2932,
  "\u2581\u6211\u53eb": 2933,
  "\u2581\u6e2f\u7247": 2934,
  "\u4e2b\u9b1f": 2935,
  "\u5ba2\u6808": 2936,
  "\u65c5\u6e38": 2937,
  "\u2581\u559c\u6b22": 2938,
  "\u2581\u566c": 2939,
  "\u62c9\u65af": 2940,
  "\u2581\u6211\u7684\u59b9\u59b9": 2941,
  "\u8c03\u6559": 2942,
  "\u8fdb\u4e86": 2943,
  "\u9003\u4ea1": 2944,
  "\u72c2\u60f3\u66f2": 2945,
  "\u2581\u5bab": 2946,
  "\u4e1d\u96c0": 2947,
  "\u4eba\u5acc": 2948,
  "\u5bbf\u547d": 2949,
  "\u79d1\u7814": 2950,
  "\u9a71\u9b54": 2951,
  "\u9ad8\u6821": 2952,
  "\u540a\u6253": 2953,
  "\u597d\u5b55": 2954,
  "\u5c0f\u54e5": 2955,
  "\u6361\u4e2a": 2956,
  "\u9738\u738b": 2957,
  "!!!": 2958,
  "\u2581\u4e09\u754c": 2959,
  "\u2581\u6c42\u751f": 2960,
  "\u2581\u593a": 2961,
  "\u2581\u75af": 2962,
  "\u4e0d\u89c1": 2963,
  "\u548c\u79bb": 2964,
  "\u6c38\u4e0d": 2965,
  "\u72b6\u5143": 2966,
  "\u2581\u7ec8\u7109": 2967,
  "\u2581\u968f\u8eab": 2968,
  "\u2581\u798f": 2969,
  "\u2581\u80fd": 2970,
  "\u5389\u5bb3": 2971,
  "\u5bcc\u7f8e": 2972,
  "\u661f\u94c1": 2973,
  "\u72fc\u4eba": 2974,
  "\u2581\u5f71\u5e1d": 2975,
  "\u6ca1\u8ba9\u4f60": 2976,
  "\u7684\u6211\u4eec": 2977,
  "\u4f60\u4e0d": 2978,
  "\u51a4\u79cd": 2979,
  "\u6211\u4f1a": 2980,
  "\u76db\u5ba0": 2981,
  "\u6211\u5f00\u5c40": 2982,
  "\u2581\u6b32": 2983,
  "\u2581\u72d7": 2984,
  "\u519c\u6c11": 2985,
  "\u56de\u6218": 2986,
  "\u673a\u7f18": 2987,
  "\u67f4\u5200": 2988,
  "\u7eed\u547d": 2989,
  "\u2581\u6587\u660e": 2990,
  "\u2581\u841d\u8389": 2991,
  "\u7206\u7ea2\u4e86": 2992,
  "\u590f\u5929": 2993,
  "\u72ec\u81ea": 2994,
  "\u73a9\u8f6c": 2995,
  "\u4f60\u54ed\u5565": 2996,
  "\u5199\u8f6e\u773c": 2997,
  "\u4ece\u5c0f": 2998,
  "\u53d8\u5f02": 2999,
  "\u8c0e\u8a00": 3000,
  "\u519b\u9600": 3001,
  "\u70fd\u706b": 3002,
  "\u9752\u4e91": 3003,
  "\u2581\u4e00\u5251": 3004,
  "\u2581\u6bcf\u5929": 3005,
  "\u5f02\u5e38": 3006,
  "\u8d25\u5bb6": 3007,
  "\u8ffd\u7740": 3008,
  "\u2581\u504f\u6267": 3009,
  "\u6d77\u8d3c\u738b": 3010,
  "\u2581\u4e07\u4eba\u8ff7": 3011,
  "\u4eba\u751f\u5dc5\u5cf0": 3012,
  "\u2581\u9760": 3013,
  "\u4e4b\u7075": 3014,
  "\u652f\u914d": 3015,
  "\u7687\u4e0a": 3016,
  "\u961f\u957f": 3017,
  "\u9f99\u73e0": 3018,
  "\u6211\u5728\u672b\u4e16": 3019,
  "\u624b\u8bb0": 3020,
  "\u7267\u5e08": 3021,
  "\u79d1\u4e3e": 3022,
  "\u8d85\u80fd": 3023,
  "\u2581\u4f20\u8bf4": 3024,
  "\u4f60\u600e\u4e48": 3025,
  "\u4e13\u4e1a": 3026,
  "\u4e24\u754c": 3027,
  "\u53db\u9006": 3028,
  "\u5bbf\u820d": 3029,
  "\u73b0\u4e16": 3030,
  "\u9ad8\u8fbe": 3031,
  "\u9b54\u5e1d": 3032,
  "\u7684\u7537\u4eba": 3033,
  "\u2581\u552f": 3034,
  "\u2581\u7c73": 3035,
  "\u5f8b\u5e08": 3036,
  "\u738b\u56fd": 3037,
  "\u767e\u500d": 3038,
  "\u851a\u84dd": 3039,
  "\u8650\u6587\u5973\u4e3b": 3040,
  "\u2581\u8d5b\u535a\u670b\u514b": 3041,
  "\u5236\u9020": 3042,
  "\u5947\u8469": 3043,
  "\u641e\u7b11": 3044,
  "\u6f2b\u6f2b": 3045,
  "\u795e\u63a2": 3046,
  "\u2581\u6211\u6709\u4e00\u5ea7": 3047,
  "\u25813": 3048,
  "\u4e5d\u53d4": 3049,
  "\u5185\u5377": 3050,
  "\u2581\u6697\u591c": 3051,
  "\u7f20\u4e0a\u4e86": 3052,
  "\u2581\u53ef": 3053,
  "\u518d\u6b21": 3054,
  "\u5d29\u6e83": 3055,
  "\u800c\u6765": 3056,
  "\u90aa\u738b": 3057,
  "\u2581\u95fa\u871c": 3058,
  "\u5f00\u59cb\u5d1b\u8d77": 3059,
  "\u2581\u7a7f\u8d8a\u5f02\u754c": 3060,
  "\u63d0\u524d": 3061,
  "\u753b\u98ce": 3062,
  "\u2581\u90a3\u4e2a": 3063,
  "50": 3064,
  "\u5047\u7684": 3065,
  "\u533b\u4ed9": 3066,
  "\u2581\u8230\u5a18": 3067,
  "\u2581\u8840\u65cf": 3068,
  "\u5408\u6b22\u5b97": 3069,
  "\u6b66\u5723": 3070,
  "\u88c5\u903c": 3071,
  "\u2581\u51f9\u51f8": 3072,
  "\u2581\u542c\u8bf4": 3073,
  "\u4e0e\u9b54\u6cd5": 3074,
  "\u6211\u6253\u9020": 3075,
  "\u739b\u4e3d": 3076,
  "\u975e\u8981": 3077,
  "\u4e0d\u592a\u5bf9": 3078,
  "\u4e3a\u6240\u6b32\u4e3a": 3079,
  "\u2581\u82e5": 3080,
  "\u2581\u9a6c": 3081,
  "\u5f00\u62d3": 3082,
  "\u623f\u4e1c": 3083,
  "\u2581\u6697\u604b": 3084,
  "\u2581\u5047\u5343\u91d1": 3085,
  "\u2581\u7f18": 3086,
  "\u50bb\u5b50": 3087,
  "\u8fd8\u80fd": 3088,
  "\u4e0d\u6b63\u5e38": 3089,
  "\u2581\u5f00\u5c40\u89c9\u9192": 3090,
  "\u25812": 3091,
  "\u2581\u5b8b": 3092,
  "\u2581\u7ef4": 3093,
  "\u6b66\u6797": 3094,
  "\u6e21\u52ab": 3095,
  "\u7956\u9f99": 3096,
  "\u524d\u6587\u660e": 3097,
  "\u89c1\u95fb\u5f55": 3098,
  "\u2581\u91cd\u751f\u5f52\u6765": 3099,
  "\u4ed9\u8def": 3100,
  "\u5348\u591c": 3101,
  "\u5f53\u4e86": 3102,
  "\u6742\u8d27": 3103,
  "\u9707\u64bc": 3104,
  "\u2581\u4e00\u62f3": 3105,
  "\u2581\u660e\u660e": 3106,
  "\u5305\u56f4\u4e86": 3107,
  "\u9634\u9633\u5e08": 3108,
  "\u5f81\u6218": 3109,
  "\u6bd4\u6211": 3110,
  "\u6d77\u5c9b": 3111,
  "\u7956\u5e08": 3112,
  "\u79cd\u5730": 3113,
  "\u2581\u4e0d\u60f3": 3114,
  "\u2581\u68a6\u5883": 3115,
  "\u7684\u4f20\u5947": 3116,
  "\u98ce\u4e91\u5f55": 3117,
  "\u5b9e\u9a8c": 3118,
  "\u79d8\u4e66": 3119,
  "\u7fa4\u661f": 3120,
  "\u9886\u57df": 3121,
  "\u2581\u7cdf\u7cd5": 3122,
  "\u2581\u5f00\u5c40\u7b7e\u5230": 3123,
  "\u4e09\u4e16": 3124,
  "\u51fa\u6765": 3125,
  "\u730e\u6740": 3126,
  "\u548c\u5979\u7684": 3127,
  "\u9ed1\u79d1\u6280": 3128,
  "\u51fa\u5c71": 3129,
  "\u5341\u4ebf": 3130,
  "\u53bb\u4e86": 3131,
  "\u9b54\u65cf": 3132,
  "\u2581\u5927\u9053": 3133,
  "\u5931\u8d25\u540e": 3134,
  "\u8be1\u5f02\u4e16\u754c": 3135,
  "\u2581\u5168\u6c11\u6c42\u751f": 3136,
  "\u4e00\u76f4": 3137,
  "\u51b0\u5c71": 3138,
  "\u53e4\u4eca": 3139,
  "\u7238\u5988": 3140,
  "\u89c2\u5bdf": 3141,
  "\u2581\u524d\u4e16": 3142,
  "\u7684\u7efc\u6f2b\u4e4b\u65c5": 3143,
  "\u4e4b\u773c": 3144,
  "\u5de5\u4e1a": 3145,
  "\u6740\u6211": 3146,
  "\u8001\u5b50": 3147,
  "\u2581\u53e4\u4ee3": 3148,
  "\u2581\u6211\u4ee5": 3149,
  "\u79e6\u6dee\u8339": 3150,
  "90": 3151,
  "\u51fa\u9053": 3152,
  "\u738b\u724c": 3153,
  "\u9053\u4fa3": 3154,
  "\u91cd\u65b0": 3155,
  "\u2581\u6697\u9ed1": 3156,
  "\u5438\u8840\u59ec": 3157,
  "\u672f\u56de\u6218": 3158,
  "\u7684\u52c7\u8005": 3159,
  "\u2581\u5916": 3160,
  "\u4eca\u751f": 3161,
  "\u4f53\u5185": 3162,
  "\u540e\u6211\u88ab": 3163,
  "\u66b4\u5bcc\u4e86": 3164,
  "\u5404\u79cd": 3165,
  "\u5b9e\u5728": 3166,
  "\u610f\u8bc6": 3167,
  "\u6700\u5f31": 3168,
  "\u7406\u60f3": 3169,
  "\u7f14\u9020": 3170,
  "\u5bb6\u7684\u5c0f": 3171,
  "\u4e5d\u9704": 3172,
  "\u4ece\u88ab": 3173,
  "\u638c\u4e2d": 3174,
  "\u901a\u5173": 3175,
  "\u91cd\u6765": 3176,
  "\u4e4b\u6211\u5728": 3177,
  "\u6211\u5e26\u7740": 3178,
  "\u2581\u91cd\u751f\u5728": 3179,
  "\u5e26\u98de": 3180,
  "\u6570\u636e": 3181,
  "\u65af\u62c9": 3182,
  "\u6709\u94b1": 3183,
  "\u2581\u4e00\u5ff5": 3184,
  "\u6c42\u653e\u8fc7": 3185,
  "\u2581\u660e\u65e5\u65b9\u821f\u7684": 3186,
  "\u4f7f\u547d": 3187,
  "\u4fdd\u59c6": 3188,
  "\u52a0\u8f7d": 3189,
  "\u6b8b\u75be": 3190,
  "\u795e\u738b": 3191,
  "\u7f51\u738b": 3192,
  "\u96f7\u7535": 3193,
  "\u2581\u5e9f\u6750": 3194,
  "\u2581\u671d": 3195,
  "\u4e5d\u5dde": 3196,
  "\u4eba\u7687": 3197,
  "\u6d77\u519b": 3198,
  "\u6d77\u738b": 3199,
  "\u957f\u5b89": 3200,
  "\u2581\u8d5b\u9a6c\u5a18": 3201,
  "\u2581\u6211\u5728\u53e4\u4ee3": 3202,
  "\u2581\u67d0\u79d1\u5b66\u7684": 3203,
  "\u2581\u89e3": 3204,
  "\u2581\u8bdb": 3205,
  "\u4e5e\u4e10": 3206,
  "\u5446\u840c": 3207,
  "\u5f53\u5bb6": 3208,
  "\u2581\u62d2\u7edd": 3209,
  "\u4e4b\u5f8b\u8005": 3210,
  "\u2581\u6843": 3211,
  "\u8ba8\u538c": 3212,
  "\u2581\u6e23\u7537": 3213,
  "boss": 3214,
  "\u5929\u4e0b\u7b2c\u4e00": 3215,
  "\u2581\u4fa0": 3216,
  "\u2581\u5085": 3217,
  "\u2581\u6715": 3218,
  "\u2581\u77e5": 3219,
  "\u5f00\u53d1": 3220,
  "\u641e\u94b1": 3221,
  "\u2581\u4e2d\u4e8c": 3222,
  "\u2581\u795e\u9b54": 3223,
  "\u2581\u7af9\u9a6c": 3224,
  "\u521b\u4e16\u795e": 3225,
  "\u6597\u7f57\u5927\u9646": 3226,
  "\u2581\u5468": 3227,
  "\u4e07\u500d": 3228,
  "\u5bc4\u751f": 3229,
  "\u8ff7\u96fe": 3230,
  "\u7cfb\u7edf\u4e4b": 3231,
  "\u5077\u542c\u5fc3\u58f0": 3232,
  "\u2581\u79cb": 3233,
  "\u4ea1\u56fd": 3234,
  "\u5ac2\u5b50": 3235,
  "\u7834\u788e": 3236,
  "\u6253\u5de5\u4eba": 3237,
  "\u5165\u9aa8": 3238,
  "\u540e\u5979": 3239,
  "\u5916\u4f20": 3240,
  "\u6597\u7834": 3241,
  "\u8fd9\u91cc": 3242,
  "\u5f53\u54b8\u9c7c": 3243,
  "ss": 3244,
  "\u4e0d\u884c": 3245,
  "\u5154\u5b50": 3246,
  "\u62d0\u4e2a": 3247,
  "\u6700\u7ec8": 3248,
  "\u5f00\u540e\u5bab": 3249,
  "\u6211\u4e00\u4e2a": 3250,
  "\u72af\u7f6a": 3251,
  "\u76f4\u7537": 3252,
  "\u2581\u4ed9\u5e1d": 3253,
  "\u5b58\u5728\u7684": 3254,
  "\u7537\u4e3b\u7684": 3255,
  "\u60a0\u95f2\u751f\u6d3b": 3256,
  "\u7a7f\u8d8a\u6210\u4e86": 3257,
  "\u76f8\u4fe1": 3258,
  "\u95ea\u8000": 3259,
  "\u2581\u6d41\u6d6a": 3260,
  "\u2581\u8bf4\u597d": 3261,
  "\u4e0d\u6b7b\u4e8e": 3262,
  "\u6211\u89c9\u9192": 3263,
  "\u2581\u540d\u4fa6\u63a2": 3264,
  "\u53cd\u6d3e\u5927\u4f6c": 3265,
  "\u6211\u80fd\u770b\u5230": 3266,
  "\u6c14\u8fd0\u4e4b\u5b50": 3267,
  "\u5c60\u9f99": 3268,
  "\u5e84\u56ed": 3269,
  "\u6392\u7403": 3270,
  "\u65c5\u8005": 3271,
  "\u661f\u661f": 3272,
  "\u2581\u5ba0\u7269": 3273,
  "\u2581\u5deb\u5e08": 3274,
  "\u65e0\u804a": 3275,
  "\u79d1\u5e7b": 3276,
  "\u89e6\u624b": 3277,
  "\u2581\u5343\u5e74": 3278,
  "\u2581\u865a\u62df": 3279,
  "\u2581\u8c0d": 3280,
  "\u4e00\u7edf": 3281,
  "\u4eab\u53d7": 3282,
  "\u8363\u5149": 3283,
  "\u9ec4\u660f": 3284,
  "\u2581\u6211\u5f53": 3285,
  "\u540e\u7684\u6211": 3286,
  "\u63a2\u7d22": 3287,
  "\u6587\u5a31": 3288,
  "\u8863\u536b": 3289,
  "\u9884\u8a00": 3290,
  "\u4e0d\u5e72\u4e86": 3291,
  "\u2581\u78a7\u84dd\u822a\u7ebf": 3292,
  "\u4e16\u5bb6": 3293,
  "\u4f60\u5bb6": 3294,
  "\u53e4\u795e": 3295,
  "\u590d\u5174": 3296,
  "\u5f52\u9014": 3297,
  "\u843d\u9b44": 3298,
  "\u8fe6\u52d2": 3299,
  "\u2581\u4f20\u5947": 3300,
  "\u2581\u68a6\u56de": 3301,
  "\u2581\u7504\u5b1b": 3302,
  "\u2581\u53bb": 3303,
  "\u723d\u6587": 3304,
  "\u8001\u592a": 3305,
  "\u8086\u610f": 3306,
  "\u91d1\u521a": 3307,
  "\u9edb\u7389": 3308,
  "\u2581\u8be1\u5f02\u590d\u82cf": 3309,
  "\u2581\u96fe": 3310,
  "\u66fe\u7ecf": 3311,
  "\u73b0\u573a": 3312,
  "\u8774\u8776": 3313,
  "\u8d62\u5bb6": 3314,
  "\u2581\u5c0f\u9a6c": 3315,
  "\u516c\u4e3b\u7684": 3316,
  "\u5929\u4e0b\u65e0\u654c": 3317,
  "\u2581\u64a9": 3318,
  "\u6210\u7684": 3319,
  "\u63a7\u5236": 3320,
  "\u7eaf\u7231": 3321,
  "\u2581\u60f3\u8981": 3322,
  "\u4e4b\u91cd\u751f": 3323,
  "\u2581\u6751": 3324,
  "\u4f73\u4eba": 3325,
  "\u524d\u4f20": 3326,
  "\u5fa1\u59d0": 3327,
  "\u6597\u58eb": 3328,
  "\u6b66\u5e1d": 3329,
  "\u8352\u91ce": 3330,
  "\u2581\u5b66\u9738": 3331,
  "\u5973\u4e3b\u89d2": 3332,
  "\u2581\u95ea\u5a5a\u540e": 3333,
  "\u4e00\u5e74": 3334,
  "\u5343\u53e4": 3335,
  "\u7684\u662f": 3336,
  "\u8001\u5927": 3337,
  "\u91cd\u5efa": 3338,
  "\u9f99\u795e": 3339,
  "\u2581\u6446\u70c2": 3340,
  "\u65f6\u4ee3\u7684": 3341,
  "\u2581\u6211\u53ea\u662f\u4e2a": 3342,
  "\u7834\u6848": 3343,
  "\u6709\u70b9\u602a": 3344,
  "\u767d\u5bcc\u7f8e": 3345,
  "\u89c1\u949f\u60c5": 3346,
  "\u2581\u6bd4": 3347,
  "\u2581\u6e29": 3348,
  "\u2581\u89c1": 3349,
  "\u4e4b\u5916": 3350,
  "\u68a6\u4e2d": 3351,
  "\u7f16\u8f91": 3352,
  "\u2581\u610f\u5916": 3353,
  "\u517b\u6210\u8bb0": 3354,
  "\u2581\u6b27": 3355,
  "\u4e13\u5c5e": 3356,
  "\u4e4b\u56fd": 3357,
  "\u4e4b\u8c1c": 3358,
  "\u5355\u8eab": 3359,
  "\u5929\u5802": 3360,
  "\u6389\u9a6c": 3361,
  "\u968f\u519b": 3362,
  "\u2581\u518d\u89c1": 3363,
  "\u2581\u8ddf": 3364,
  "\u53d1\u5c55": 3365,
  "\u6b22\u559c": 3366,
  "\u76f2\u76d2": 3367,
  "\u2581\u4ea1\u7075": 3368,
  "\u2581\u6df7\u5728": 3369,
  "\u4e4b\u65e0\u9650": 3370,
  "\u9b54\u738b\u7684": 3371,
  "\u518d\u89c1": 3372,
  "\u56db\u65b9": 3373,
  "\u6d6e\u751f": 3374,
  "\u2581\u4ed9\u754c": 3375,
  "\u2581\u6076\u6bd2": 3376,
  "\u5927\u4eba\u7684": 3377,
  "CP": 3378,
  "\u4e0d\u826f": 3379,
  "\u4e4b\u7fbd": 3380,
  "\u522b\u60f3": 3381,
  "\u5927\u6d77": 3382,
  "\u5c3e\u5df4": 3383,
  "\u6218\u961f": 3384,
  "\u7ecf\u9a8c": 3385,
  "\u8d5b\u9a6c\u5a18": 3386,
  "\u2581\u8fdb\u51fb\u7684": 3387,
  "\u2581\u60ca\u609a\u6e38\u620f": 3388,
  "\u4e3b\u6bcd": 3389,
  "\u5468\u76ee": 3390,
  "\u589e\u5e45": 3391,
  "\u7409\u7483": 3392,
  "\u7a7f\u8fdb": 3393,
  "\u7ecf\u5178": 3394,
  "\u2581\u90aa\u738b": 3395,
  "\u662f\u5426\u641e\u9519\u4e86\u4ec0\u4e48": 3396,
  "\u4e00\u79cd": 3397,
  "\u56db\u4e2a": 3398,
  "\u5948\u4f55": 3399,
  "\u7ea2\u5a18": 3400,
  "\u83b2\u82b1\u697c": 3401,
  "\u8d5b\u4e9a\u4eba": 3402,
  "\u661f\u7a79\u94c1\u9053": 3403,
  "\u2581\u683c": 3404,
  "\u2581\u706d": 3405,
  "\u4e4b\u9b42": 3406,
  "\u2581\u4e5d\u5dde": 3407,
  "\u2581\u7a7f\u68ad": 3408,
  "\u56e2\u5ba0\u4e86": 3409,
  "\u6211\u624d\u662f": 3410,
  "\u5e26\u7740\u7a7a\u95f4": 3411,
  "\u2581\u6211\u5728\u5f02\u4e16\u754c": 3412,
  "\u2581\u8f7b": 3413,
  "\u53cd\u9aa8": 3414,
  "\u63a8\u7406": 3415,
  "\u8111\u5b50": 3416,
  "\u9057\u5fd8": 3417,
  "\u9760\u8c31": 3418,
  "\u2581\u5a07\u59bb": 3419,
  "\u2581\u6c99\u96d5": 3420,
  "\u2581\u8fdb\u5316": 3421,
  "\u5f53\u7687\u5e1d": 3422,
  "\u8fe6\u52d2\u5e95": 3423,
  "\u2581\u9e3f\u8499": 3424,
  "\u7684\u7cfb\u7edf": 3425,
  "\u8bf4\u6211\u662f": 3426,
  "\u2581\u5c11\u5973\u524d\u7ebf": 3427,
  "\u2581\u5deb": 3428,
  "\u559c\u5267": 3429,
  "\u5b88\u5219": 3430,
  "\u627e\u6211": 3431,
  "\u65e0\u4eba": 3432,
  "\u76d8\u53e4": 3433,
  "\u7981\u533a": 3434,
  "\u2581\u5b98\u573a": 3435,
  "\u2581\u7edd\u5bf9": 3436,
  "\u4fee\u4ed9\u8005": 3437,
  "\u7684\u91cd\u751f": 3438,
  "01": 3439,
  "\u2581\u8349": 3440,
  "\u4fee\u58eb": 3441,
  "\u610f\u601d": 3442,
  "\u6b4c\u884c": 3443,
  "\u6ce8\u5b9a": 3444,
  "\u6f14\u4e49": 3445,
  "\u72d0\u4ed9": 3446,
  "\u964d\u4e16": 3447,
  "\u7a7f\u8d8a\u4e4b": 3448,
  "\u5149\u660e": 3449,
  "\u53f8\u673a": 3450,
  "\u6253\u724c": 3451,
  "\u65e5\u65e5": 3452,
  "\u90aa\u6076": 3453,
  "\u2581\u6570\u7801": 3454,
  "\u4e8b\u4ef6\u7c3f": 3455,
  "\u5a5a\u540e\u7231": 3456,
  "\u91d1\u4e1d\u96c0": 3457,
  "\u4ed9\u7f18": 3458,
  "\u5f88\u5f3a": 3459,
  "\u65e5\u4e4b": 3460,
  "\u719f\u7ec3": 3461,
  "\u7978\u5bb3": 3462,
  "\u7ec8\u672b": 3463,
  "\u80cc\u666f": 3464,
  "\u8bfb\u4e66": 3465,
  "\u9003\u5a5a": 3466,
  "\u2581\u519b\u5a5a": 3467,
  "\u2581\u6740\u624b": 3468,
  "\u2581\u751f\u6d3b": 3469,
  "\u4e86\u4e00\u4e2a": 3470,
  "\u7684\u9b54\u738b": 3471,
  "\u751f\u5b58\u6e38\u620f": 3472,
  "\u7684\u6211\u88ab\u8feb": 3473,
  "\u2581\u8650": 3474,
  "\u6821\u9738": 3475,
  "\u756a\u5916": 3476,
  "\u7684\u9b54": 3477,
  "\u91cc\u6709": 3478,
  "\u4f60\u54ed\u4ec0\u4e48": 3479,
  "\u4e2b\u5934": 3480,
  "\u7834\u574f": 3481,
  "\u7eaa\u4e8b": 3482,
  "\u82df\u5230": 3483,
  "\u840c\u5a03": 3484,
  "\u2581\u4ee3": 3485,
  "\u5723\u6bcd": 3486,
  "\u5e26\u7403": 3487,
  "\u6050\u60e7": 3488,
  "\u6211\u53bb": 3489,
  "\u8bde\u751f": 3490,
  "\u8bf4\u8bdd": 3491,
  "\u90a3\u5c31": 3492,
  "\u2581\u5b64\u72ec": 3493,
  "\u4e0d\u662f\u6211": 3494,
  "\u5979\u53ea\u60f3": 3495,
  "\u5e55\u540e\u9ed1\u624b": 3496,
  "\u2581\u7cbe\u7075\u5b9d\u53ef\u68a6": 3497,
  "\u2581\u5e03": 3498,
  "\u4e1e\u76f8": 3499,
  "\u6c2a\u547d": 3500,
  "\u7834\u6653": 3501,
  "\u7b2c\u4e09": 3502,
  "\u2581\u5e74\u4ee3": 3503,
  "\u2581\u91cd\u751f\u4e5d\u96f6": 3504,
  "\u2581\u521b": 3505,
  "\u2581\u6362": 3506,
  "\u624b\u672d": 3507,
  "\u64a9\u7cbe": 3508,
  "\u6708\u4eae": 3509,
  "\u6781\u9650": 3510,
  "\u6b66\u88c5": 3511,
  "\u771f\u9999": 3512,
  "\u7ffb\u8f66": 3513,
  "\u8d24\u8005": 3514,
  "\u2581\u751f\u547d": 3515,
  "\u4eac\u5708\u592a\u5b50\u7237": 3516,
  "\u2581\u6c99": 3517,
  "\u4e00\u767e": 3518,
  "\u4eba\u5076": 3519,
  "\u5b9d\u8389": 3520,
  "\u5c0f\u5f1f": 3521,
  "\u5c31\u4f1a": 3522,
  "\u795e\u5e1d": 3523,
  "\u7f8e\u4e3d": 3524,
  "\u8f68\u8ff9": 3525,
  "\u7efc\u6b66\u4fa0": 3526,
  "\u7684\u4e16\u754c\u91cc": 3527,
  "\u2581\u5546": 3528,
  "\u5a18\u5316": 3529,
  "\u5c11\u4e3b": 3530,
  "\u5e74\u7684": 3531,
  "\u653e\u8086": 3532,
  "\u6f29\u6da1": 3533,
  "\u9f50\u5929": 3534,
  "\u2581\u4e0d\u4f1a": 3535,
  "\u2581\u6211\u4e0d": 3536,
  "\u5f53\u5927\u4f6c": 3537,
  "\u673a\u5668\u4eba": 3538,
  "\u7684\u5947\u5e7b": 3539,
  "\u2581\u4fee\u4ed9\u754c": 3540,
  "\u2581\u5168\u804c\u6cd5\u5e08": 3541,
  "\u7ea6\u4f1a\u5927\u4f5c\u6218": 3542,
  "\u53e3\u888b": 3543,
  "\u56fd\u6c11": 3544,
  "\u6bcf\u65e5": 3545,
  "\u72c2\u6f6e": 3546,
  "\u86ee\u8352": 3547,
  "\u9519\u8bef": 3548,
  "201": 3549,
  "\u2581\u5373\u4f7f": 3550,
  "\u2581\u70ed\u8840": 3551,
  "\u2581\u8352\u91ce": 3552,
  "\u6210\u9996\u5bcc": 3553,
  "\u7684\u5973\u513f": 3554,
  "\u5f00\u59cb\u8fdb\u5316": 3555,
  "II": 3556,
  "\u2581\u514b": 3557,
  "\u5fe0\u72ac": 3558,
  "\u62b1\u7d27": 3559,
  "\u8d70\u51fa": 3560,
  "\u903c\u5a5a": 3561,
  "\u2581\u5996\u5b7d": 3562,
  "\u2581\u6218\u4e89": 3563,
  "\u5f00\u59cb\u505a": 3564,
  "\u5f53\u53cd\u6d3e": 3565,
  "\u83b7\u5f97\u4e86": 3566,
  "\u7cfb\u7edf\u7684\u6211": 3567,
  "\u2581\u67aa": 3568,
  "\u5192\u724c": 3569,
  "\u5bb6\u5ead": 3570,
  "\u5e72\u5458": 3571,
  "\u654c\u56fd": 3572,
  "\u68a6\u4e4b": 3573,
  "\u83ab\u53ca": 3574,
  "\u9020\u7269": 3575,
  "\u2581\u9738\u603b": 3576,
  "\u2581\u67ef\u5357\u4e4b": 3577,
  "\u2581\u96be": 3578,
  "\u59b9\u63a7": 3579,
  "\u6218\u9524": 3580,
  "\u72ec\u5c0a": 3581,
  "\u2581\u661f\u6cb3": 3582,
  "\u2581\u9c81\u8fc5": 3583,
  "\u8def\u8fc7\u7684": 3584,
  "\u2581\u5728\u5d29\u574f": 3585,
  "\u2581\u4e39": 3586,
  "\u4eba\u5f62": 3587,
  "\u51b2\u559c": 3588,
  "\u591c\u591c": 3589,
  "\u5965\u6258": 3590,
  "\u5bcc\u7fc1": 3591,
  "\u76f8\u7231": 3592,
  "\u7956\u56fd": 3593,
  "\u2581\u5f7c\u5cb8": 3594,
  "\u2581\u7b2c\u4e94": 3595,
  "\u7684\u9b54\u6cd5": 3596,
  "\u7adf\u6210\u4e86": 3597,
  "2:": 3598,
  "\u4e07\u5343": 3599,
  "\u5929\u4e4b": 3600,
  "\u6551\u4e86": 3601,
  "\u9f99\u5a18": 3602,
  "\u2581\u5988\u5988": 3603,
  "\u4e0d\u662f\u4eba": 3604,
  "\u4fee\u4ed9\u8bb0": 3605,
  "\u54e5\u65af\u62c9": 3606,
  "\u6446\u70c2\u4e86": 3607,
  "\u653b\u7565\u4e86": 3608,
  "\u2581\u4f1a": 3609,
  "\u2581\u7e41": 3610,
  "\u5c0f\u5c0f": 3611,
  "\u6293\u9b3c": 3612,
  "\u6587\u8c6a": 3613,
  "\u661f\u6d77": 3614,
  "\u8299\u5b81": 3615,
  "er": 3616,
  "\u2581\u5199": 3617,
  "\u2581\u846c": 3618,
  "\u5faa\u73af": 3619,
  "\u79d8\u5883": 3620,
  "\u7f20\u4e0a": 3621,
  "\u7fa4\u53cb": 3622,
  "\u81ea\u5e26": 3623,
  "\u2581\u5386\u53f2": 3624,
  "\u8299\u5b81\u5a1c": 3625,
  "\u2581\u672b\u65e5\u4e4b": 3626,
  "\u52a9\u7406": 3627,
  "\u6211\u7ed9": 3628,
  "\u661f\u5149": 3629,
  "\u7206\u706b": 3630,
  "\u732b\u732b": 3631,
  "\u2581\u7ec8\u672b": 3632,
  "\u2581\u9b54\u517d": 3633,
  "\u88ab\u75c5\u5a07": 3634,
  "\u4e0a\u4ea4": 3635,
  "\u4f60\u5c31": 3636,
  "\u8fd0\u52a8": 3637,
  "\u2581\u67ef\u5b66": 3638,
  "\u2581\u8f6c\u4e16": 3639,
  "\u662f\u5927\u4f6c": 3640,
  "\u2581\u86c7": 3641,
  "\u4e0d\u5728": 3642,
  "\u5b9d\u7bb1": 3643,
  "\u9762\u5177": 3644,
  "\u2581\u8ba9\u6211": 3645,
  "\u2581\u7a7f\u6210\u70ae\u7070": 3646,
  "\u5b88\u671b": 3647,
  "\u6218\u56fd": 3648,
  "cos": 3649,
  "\u2581\u5973\u88c5": 3650,
  "\u2581\u5996\u602a": 3651,
  "\u2581\u840c\u5b9d": 3652,
  "\u2581\u9ece\u660e": 3653,
  "\u4e16\u754c\u5f00\u59cb": 3654,
  "\u7684\u6211\u4e0d\u60f3": 3655,
  "\u4e8c\u5341": 3656,
  "\u4eb2\u5988": 3657,
  "\u5546\u5e97": 3658,
  "\u5a36\u59bb": 3659,
  "\u6267\u884c": 3660,
  "\u7ecf\u8425": 3661,
  "\u963f\u59e8": 3662,
  "\u2581\u5e73\u884c": 3663,
  "\u2581\u906e\u5929": 3664,
  "\u5979\u4eec\u7684": 3665,
  "\u5de5\u5177\u4eba": 3666,
  "\u2581\u7ea2\u697c\u4e4b": 3667,
  "\u2581\u85cf": 3668,
  "\u2581\u9152": 3669,
  "\u4e00\u4f4d": 3670,
  "\u4faf\u7237": 3671,
  "\u5151\u6362": 3672,
  "\u518d\u8d77": 3673,
  "\u5df2\u4e45": 3674,
  "\u884c\u8d70": 3675,
  "\u8ffd\u6c42": 3676,
  "\u91cd\u9022": 3677,
  "\u2581\u4e5d\u53d4": 3678,
  "\u7231\u4e0a\u4e86": 3679,
  "\u2581\u672b\u65e5\u964d\u4e34": 3680,
  "\u5f81\u7a0b": 3681,
  "\u62b1\u62b1": 3682,
  "\u80e1\u6843": 3683,
  "\u843d\u7684": 3684,
  "\u8be1\u4e8b": 3685,
  "\u8fc7\u4e8e": 3686,
  "\u2581\u79cd\u7530": 3687,
  "\u2581\u8214\u72d7": 3688,
  "\u2581\u5d29\u574f\u4e4b": 3689,
  "\u53c8\u53c8": 3690,
  "\u5492\u56de": 3691,
  "\u72c2\u5f92": 3692,
  "\u7537\u5b69": 3693,
  "\u8ba1\u65f6": 3694,
  "\u2581\u8352\u5c9b": 3695,
  "\u2581\u9003\u8352": 3696,
  "\u4ec0\u4e48\u9b3c": 3697,
  "\u8def\u6c42\u751f": 3698,
  "\u52a0\u5165\u804a\u5929\u7fa4": 3699,
  "\u2581\u559c": 3700,
  "\u2581\u5df4": 3701,
  "\u2581\u695a": 3702,
  "\u2581\u6c88": 3703,
  "\u4e0d\u670d": 3704,
  "\u4e0d\u8d1f": 3705,
  "\u4e4b\u8bd7": 3706,
  "\u5723\u5b50": 3707,
  "\u5f3a\u60e8": 3708,
  "\u67d4\u5f31": 3709,
  "\u7279\u6b8a": 3710,
  "\u767d\u773c": 3711,
  "\u95ee\u9053": 3712,
  "\u9b3c\u602a": 3713,
  "\u2581\u6c34\u6d52": 3714,
  "\u2581\u7f51\u738b": 3715,
  "\u7684\u6b21\u5143": 3716,
  "\u4e3b\u4eba": 3717,
  "\u5251\u5ba2": 3718,
  "\u5343\u5c81": 3719,
  "\u542c\u5230": 3720,
  "\u55b0\u79cd": 3721,
  "\u56fd\u5ea6": 3722,
  "\u5973\u5deb": 3723,
  "\u60b2\u5267": 3724,
  "\u7684\u4ed6": 3725,
  "\u7a76\u6781": 3726,
  "\u7adf\u88ab": 3727,
  "\u2581\u9876\u6d41": 3728,
  "\u6211\u7adf\u7136": 3729,
  "\u2581\u6d6a": 3730,
  "\u5b89\u9759": 3731,
  "\u718a\u732b": 3732,
  "\u79bd\u517d": 3733,
  "\u79d1\u5b66\u5bb6": 3734,
  "\u2581\u539f\u795e\u4e4b": 3735,
  "\u2581\u62a4": 3736,
  "\u51fa\u4e86": 3737,
  "\u5927\u5bb6": 3738,
  "\u6559\u7ec3": 3739,
  "\u7684\u68a6": 3740,
  "\u9884\u77e5": 3741,
  "\u2581\u4e00\u5207": 3742,
  "\u2581\u661f\u7a79": 3743,
  "\u2581\u9752\u6885": 3744,
  "\u5730\u6c42\u751f": 3745,
  "\u6709\u70b9\u751c": 3746,
  "\u5947\u5999\u5192\u9669": 3747,
  "\u591c\u53c9": 3748,
  "\u6709\u4e9b": 3749,
  "\u6b7b\u9041": 3750,
  "\u6e23\u5973": 3751,
  "\u907f\u96be": 3752,
  "\u2581\u4e0d\u53ef": 3753,
  "\u2581\u53cc\u751f": 3754,
  "\u4e09\u56fd\u4e4b": 3755,
  "\u90fd\u662f\u6211": 3756,
  "\u2581\u7a7f\u8d8a\u5f02\u4e16": 3757,
  "??": 3758,
  "\u4fe1\u606f": 3759,
  "\u63d0\u793a": 3760,
  "\u660e\u5929": 3761,
  "\u6b7b\u7075": 3762,
  "\u730e\u624b": 3763,
  "\u7ec3\u6b66": 3764,
  "\u8033\u5a18": 3765,
  "\u9b3c\u738b": 3766,
  "\u2581\u5c0f\u5c0f": 3767,
  "\u2581\u6b7b\u540e": 3768,
  "\u2581\u9003\u79bb": 3769,
  "\u6211\u62e5\u6709": 3770,
  "\u2581\u8be1\u5f02\u964d\u4e34": 3771,
  "\u517d\u4eba": 3772,
  "\u5927\u5b8b": 3773,
  "\u62a5\u590d": 3774,
  "\u6f14\u5458": 3775,
  "\u7ea2\u4e86": 3776,
  "\u8089\u8eab": 3777,
  "\u2581\u4e0d\u826f": 3778,
  "\u2581\u4e24\u754c": 3779,
  "\u2581\u673a\u7532": 3780,
  "\u8c03\u67e5\u5458": 3781,
  "\u5927\u6709\u95ee\u9898": 3782,
  "\u4e3d\u4e1d": 3783,
  "\u4f55\u96e8": 3784,
  "\u53d8\u5f97": 3785,
  "\u6b63\u9053": 3786,
  "\u6d3b\u4e86": 3787,
  "\u73a9\u6e38\u620f": 3788,
  "\u7a7f\u6210\u4e86": 3789,
  "\u2581\u5c0f\u9a6c\u5b9d\u8389": 3790,
  "\u4e5f\u6709": 3791,
  "\u4f53\u8d28": 3792,
  "\u5996\u5973": 3793,
  "\u65c5\u4eba": 3794,
  "\u795d\u798f": 3795,
  "\u719f\u7ec3\u5ea6": 3796,
  "\u2581\u5d29\u574f\u4e16\u754c\u7684": 3797,
  "\u4ed9\u95e8": 3798,
  "\u5546\u57ce": 3799,
  "\u5efa\u8bbe": 3800,
  "\u66f9\u64cd": 3801,
  "\u8bf1\u60d1": 3802,
  "\u8c6a\u593a": 3803,
  "\u9b45\u529b": 3804,
  "\u738b\u7237\u7684": 3805,
  "\u2581\u897f\u6e38\u4e4b": 3806,
  "\u4e3a\u4f60": 3807,
  "\u592a\u5f3a": 3808,
  "\u6625\u5929": 3809,
  "\u70bc\u4e39": 3810,
  "\u2581\u519c\u5973": 3811,
  "\u2581\u82df\u5728": 3812,
  "\u4ece\u6210\u4e3a": 3813,
  "\u6211\u4e0d\u8981": 3814,
  "\u4e3b\u795e\u7a7a\u95f4": 3815,
  "\u2581\u8f6c\u751f\u6210\u4e3a": 3816,
  "\u4f9d\u7136": 3817,
  "\u540e\u5a18": 3818,
  "\u5bc6\u7801": 3819,
  "\u5e08\u7684": 3820,
  "\u6df7\u4e71": 3821,
  "\u7ea2\u5305": 3822,
  "\u7ea2\u8b66": 3823,
  "\u7f16\u5e74": 3824,
  "\u8fdc\u53e4": 3825,
  "749": 3826,
  "\u5927\u5b66\u751f": 3827,
  "he": 3828,
  "\u4e4b\u6d77": 3829,
  "\u4e4b\u7ea6": 3830,
  "\u4e4b\u8840": 3831,
  "\u5929\u751f": 3832,
  "\u6740\u4e86": 3833,
  "\u7741\u773c": 3834,
  "\u795e\u5668": 3835,
  "\u94c1\u8840": 3836,
  "\u2581\u7687\u540e": 3837,
  "\u5012\u8ba1\u65f6": 3838,
  "\u5389\u9b3c": 3839,
  "\u6253\u5361": 3840,
  "\u63a2\u6848": 3841,
  "\u7684\u98ce": 3842,
  "\u8d44\u6e90": 3843,
  "\u9b54\u6559": 3844,
  "\u2581\u866b\u65cf": 3845,
  "\u2581\u8840\u8272": 3846,
  "\u2581\u6211\u548c\u6211\u7684": 3847,
  "\u2581\u666e": 3848,
  "\u5979\u88ab": 3849,
  "\u65e0\u540d": 3850,
  "\u6b63\u7684": 3851,
  "\u8003\u53e4": 3852,
  "\u897f\u5e7b": 3853,
  "\u8ff7\u9014": 3854,
  "\u9053\u7956": 3855,
  "\u968f\u8eab": 3856,
  "\u2581\u5341\u4e8c": 3857,
  "\u517b\u5d3d\u5d3d": 3858,
  "\u5973\u4e3b\u7684": 3859,
  "\u2581\u75af\u4e86\u5427": 3860,
  "\u2581\u7a7f\u8d8a\u8005": 3861,
  "\u2581\u5ff5": 3862,
  "\u2581\u81f3": 3863,
  "\u4e0d\u6389": 3864,
  "\u521b\u5efa": 3865,
  "\u6e34\u671b": 3866,
  "\u7231\u4e0e": 3867,
  "\u4e2a\u4e16\u754c": 3868,
  "\u79e6\u59cb\u7687": 3869,
  "\u2581\u5927\u5c0f\u59d0": 3870,
  "\u560e\u560e\u4e71\u6740": 3871,
  "\u4e07\u80fd": 3872,
  "\u5410\u69fd": 3873,
  "\u5979\u9760": 3874,
  "\u5e74\u534e": 3875,
  "\u89c9\u5f97": 3876,
  "\u98a0\u8986": 3877,
  "\u2581\u65e5\u5e38": 3878,
  "\u739b\u4e3d\u82cf": 3879,
  "\u7684\u672b\u4e16": 3880,
  "hp": 3881,
  "\u4e0d\u65ad": 3882,
  "\u6cf0\u5766": 3883,
  "\u70df\u706b": 3884,
  "\u2581\u5996\u9b54": 3885,
  "\u2581\u5bb6\u6709": 3886,
  "\u2581\u7ed3\u5a5a": 3887,
  "\u2581\u94c1\u8840": 3888,
  "\u2581\u9ed1\u5316": 3889,
  "\u4e0d\u9700\u8981": 3890,
  "\u6210\u771f\u4e86": 3891,
  "\u2581\u7231\u60c5\u516c\u5bd3": 3892,
  "\u7684\u6211\u65e0\u654c\u4e86": 3893,
  "\u4eba\u4e4b": 3894,
  "\u4f60\u8981": 3895,
  "\u51ef\u6587": 3896,
  "\u547c\u5438": 3897,
  "\u5931\u63a7": 3898,
  "\u8270\u96be": 3899,
  "\u2581\u661f\u6d77": 3900,
  "\u2581\u65b0\u5a5a\u591c": 3901,
  "\u5927\u5730": 3902,
  "\u653f\u6cbb": 3903,
  "\u6c34\u6d52": 3904,
  "\u7f51\u7ea2": 3905,
  "\u9ebb\u70e6": 3906,
  "\u5f00\u59cb\u6210\u4e3a": 3907,
  "\u2581\u541e\u566c\u661f\u7a7a": 3908,
  "\u7684\u5f02\u4e16\u754c\u4e4b\u65c5": 3909,
  "\u5782\u9493": 3910,
  "\u57ce\u4e3b": 3911,
  "\u5d07\u796f": 3912,
  "\u5e2e\u6211": 3913,
  "\u603b\u7684": 3914,
  "\u6258\u65af": 3915,
  "\u725b\u9a6c": 3916,
  "\u79f0\u738b": 3917,
  "\u2581\u4ed9\u9014": 3918,
  "\u2581\u65e0\u6cd5": 3919,
  "\u2581\u6d6e\u751f": 3920,
  "\u6e38\u620f\u738b": 3921,
  "\u517b\u6210\u7cfb\u7edf": 3922,
  "\u7b2c\u56db\u5929\u707e": 3923,
  "\u2581\u672b\u4e16\u91cd\u751f\u4e4b": 3924,
  "\u62a2\u4e86": 3925,
  "\u6444\u5f71": 3926,
  "\u65b0\u7684": 3927,
  "\u76ef\u4e0a": 3928,
  "\u79d2\u6740": 3929,
  "\u53bb\u4fee\u4ed9": 3930,
  "\u540c\u4eba\u4e4b": 3931,
  "\u6211\u4eec\u7684": 3932,
  "\u6211\u7adf\u662f": 3933,
  "\u8ffd\u59bb\u706b\u846c\u573a": 3934,
  "\u2581\u8fc7": 3935,
  "\u4f3c\u4e4e": 3936,
  "\u5e26\u5d3d": 3937,
  "\u5f02\u53d8": 3938,
  "\u6625\u79cb": 3939,
  "\u7834\u70c2": 3940,
  "\u8d1f\u8d23": 3941,
  "\u96f7\u795e": 3942,
  "\u2581\u5929\u5730": 3943,
  "\u2581\u5b8c\u86cb": 3944,
  "\u2581\u600e\u4e48": 3945,
  "\u6211\u6709\u4e00\u5ea7": 3946,
  "\u2581\u86ca": 3947,
  "\u4ed9\u9053": 3948,
  "\u540d\u4e3a": 3949,
  "\u638c\u63e1": 3950,
  "\u7f05\u5317": 3951,
  "\u8be1\u79d8": 3952,
  "\u901a\u7f09": 3953,
  "\u9677\u5165": 3954,
  "\u2581\u7537\u4e3b": 3955,
  "\u2581\u9526\u7ee3": 3956,
  "\u767d\u83b2\u82b1": 3957,
  "\u751f\u5b58\u6307\u5357": 3958,
  "\u2581\u4eba\u5728\u5d29\u574f": 3959,
  "\u2581\u51ac": 3960,
  "\u2581\u66ae": 3961,
  "\u4e0d\u505c": 3962,
  "\u5251\u9053": 3963,
  "\u6536\u517b": 3964,
  "\u65f6\u523b": 3965,
  "\u7ecf\u6d4e": 3966,
  "\u8111\u6d1e": 3967,
  "\u8981\u5f53": 3968,
  "\u9739\u96f3": 3969,
  "\u9ec4\u6cc9": 3970,
  "\u2581\u7537\u53cb": 3971,
  "\u2581\u82cd\u7a79": 3972,
  "\u7684\u6211\u662f": 3973,
  "\u2581\u6211\u771f\u662f": 3974,
  "\u2581\u6ca7": 3975,
  "\u4e4b\u884c": 3976,
  "\u53bb\u5f53": 3977,
  "\u541b\u738b": 3978,
  "\u6df1\u5904": 3979,
  "\u8230\u961f": 3980,
  "\u8305\u5c71": 3981,
  "\u84b8\u6c7d": 3982,
  "\u9ec4\u6bdb": 3983,
  "\u5c11\u5973\u4e0e": 3984,
  "\u7f8e\u5973\u603b\u88c1": 3985,
  "\u2581\u4e00\u4e0d\u5c0f\u5fc3": 3986,
  "\u2581\u706b\u5f71\u5fcd\u8005": 3987,
  "\u2581\u53c8": 3988,
  "\u5929\u5b50": 3989,
  "\u5c71\u6751": 3990,
  "\u6587\u96c6": 3991,
  "\u6a21\u5f0f": 3992,
  "\u767e\u5206": 3993,
  "\u80cc\u540e": 3994,
  "\u82df\u6d3b": 3995,
  "\u84c4\u8c0b": 3996,
  "\u2581\u4e00\u54c1": 3997,
  "\u2581\u76f4\u64ad\u7b97\u547d": 3998,
  "\u2581\u970d": 3999,
  "\u4e3e\u4e16": 4000,
  "\u57fa\u7840": 4001,
  "\u5b9e\u73b0": 4002,
  "\u5bff\u547d": 4003,
  "\u90a3\u5929": 4004,
  "\u90fd\u80fd": 4005,
  "\u968f\u610f": 4006,
  "\u2581\u75c5\u5f31": 4007,
  "\u6361\u5783\u573e": 4008,
  "\u2581\u4fee\u4ed9\u4ece": 4009,
  "\u5206\u88c2": 4010,
  "\u5230\u6211": 4011,
  "\u548c\u4f60": 4012,
  "\u62dc\u5e08": 4013,
  "\u72c2\u98d9": 4014,
  "\u795e\u7075": 4015,
  "\u79f0\u5e1d": 4016,
  "\u9152\u9986": 4017,
  "\u2581\u4e09\u751f": 4018,
  "\u2581\u534e\u590f": 4019,
  "\u7684\u5c0f\u5a07\u59bb": 4020,
  "\u2581\u7a7f\u4e66\u540e\u6211": 4021,
  "\u2581\u7a7f\u8d8a\u6210\u4e3a": 4022,
  "\u4e00\u822c": 4023,
  "\u4f1f\u5927": 4024,
  "\u5996\u738b": 4025,
  "\u5de5\u5382": 4026,
  "\u7f57\u5170": 4027,
  "\u8346\u68d8": 4028,
  "\u91d1\u878d": 4029,
  "\u949f\u79bb": 4030,
  "193": 4031,
  "\u2581\u4ed9\u9053": 4032,
  "\u5ac1\u7ed9\u4e86": 4033,
  "\u7ba1\u7406\u5458": 4034,
  "\u4e4b\u65e5": 4035,
  "\u4f5c\u5bb6": 4036,
  "\u534f\u8bae": 4037,
  "\u5e7c\u5d3d": 4038,
  "\u7231\u8389": 4039,
  "\u8fd9\u4e9b": 4040,
  "\u5341\u4e07\u5e74": 4041,
  "\u7684\u4e00\u5929": 4042,
  "\u62bd\u5956\u7cfb\u7edf": 4043,
  "\u2581\u5973\u626e\u7537\u88c5": 4044,
  "\u2581\u52a0": 4045,
  "\u5251\u4fee": 4046,
  "\u5b9a\u4e86": 4047,
  "\u6cbb\u7597": 4048,
  "\u8fd0\u6c14": 4049,
  "\u2581\u851a\u84dd": 4050,
  "\u7684\u6211\u6210\u4e3a\u4e86": 4051,
  "\u4e71\u6597": 4052,
  "\u4eb2\u4eb2": 4053,
  "\u592a\u540e": 4054,
  "\u5f7b\u5e95": 4055,
  "\u6211\u5f00": 4056,
  "\u6559\u4f60": 4057,
  "\u6697\u9ed1": 4058,
  "\u6751\u957f": 4059,
  "\u7a33\u5065": 4060,
  "\u7b49\u4f60": 4061,
  "\u8bd5\u70bc": 4062,
  "\u2581\u523a\u5ba2": 4063,
  "\u2581\u54e5\u54e5": 4064,
  "\u2581\u79e6\u65f6": 4065,
  "\u2581\u9b54\u5c0a": 4066,
  "\u6211\u53ef\u4ee5": 4067,
  "\u6211\u600e\u4e48": 4068,
  "\u80fd\u529b\u8005": 4069,
  "\u5f88\u6b63\u5e38\u5427": 4070,
  "\u6211\u7684\u4e16\u754c": 4071,
  "\u2581\u6211\u771f\u6ca1\u60f3": 4072,
  "\u2581\u56da": 4073,
  "\u6076\u5f79": 4074,
  "\u6253\u602a": 4075,
  "\u6740\u6b7b": 4076,
  "\u6f2b\u6e38": 4077,
  "\u7a7f\u4eca": 4078,
  "\u7b56\u5212": 4079,
  "\u7edf\u4e00": 4080,
  "\u7f6a\u6076": 4081,
  "\u8f89\u714c": 4082,
  "\u2581\u5996\u7cbe": 4083,
  "\u5c11\u5973\u4eec": 4084,
  "\u5f00\u6302\u4e86": 4085,
  "\u8001\u7956\u5b97": 4086,
  "\u2581\u9b3c\u706d\u4e4b\u5203": 4087,
  "\u5229\u575a": 4088,
  "\u5c0f\u4e09": 4089,
  "\u9006\u5f92": 4090,
  "\u2581\u660e\u65e5": 4091,
  "\u2581\u94f6\u6cb3": 4092,
  "\u5143\u5b87\u5b99": 4093,
  "\u8fdb\u884c\u65f6": 4094,
  "\u957f\u516c\u4e3b": 4095,
  "\u2581\u5168\u4e16\u754c": 4096,
  "\u2581\u6211\u7684\u8001\u5a46\u662f": 4097,
  "\u4e66\u751f": 4098,
  "\u2581\u5bfb\u627e": 4099,
  "\u2581\u6e05\u51b7": 4100,
  "\u2581\u83b7\u5f97": 4101,
  "\u7684\u4e07\u754c": 4102,
  "\u6211\u6740\u75af\u4e86": 4103,
  "\u2581\u7a7f\u6210\u53cd\u6d3e": 4104,
  "\u2581\u7eef": 4105,
  "\u4e07\u5c81": 4106,
  "\u4ed6\u662f": 4107,
  "\u4f2a\u88c5": 4108,
  "\u505a\u4eba": 4109,
  "\u5206\u6790": 4110,
  "\u53c8\u751c": 4111,
  "\u6253\u5f00": 4112,
  "\u7269\u7406": 4113,
  "\u773c\u775b": 4114,
  "\u8425\u4e1a": 4115,
  "\u9493\u7cfb": 4116,
  "\u9668\u843d": 4117,
  "\u2581\u5eb6\u5973": 4118,
  "\u2581\u7efc\u7a7f": 4119,
  "\u4ece\u96f6\u5f00\u59cb": 4120,
  "\u2581\u7edd\u4e16\u5510\u95e8": 4121,
  "\u5927\u738b": 4122,
  "\u7231\u4eba": 4123,
  "\u7537\u7684": 4124,
  "\u2581\u7535\u5f71": 4125,
  "\u4e34\u5929\u4e0b": 4126,
  "\u5148\u751f\u7684": 4127,
  "\u5927\u5e08\u59d0": 4128,
  "\u2581\u7cbe\u7075\u4e4b": 4129,
  "\u2581\u7f51\u738b\u4e4b": 4130,
  "\u2581\u59bb": 4131,
  "\u541e\u5929": 4132,
  "\u8054\u59fb": 4133,
  "\u9057\u4ea7": 4134,
  "\u2581\u4e0d\u673d": 4135,
  "\u2581\u8c22\u9080": 4136,
  "\u7684\u65c5\u7a0b": 4137,
  "\u7684\u6b63\u786e": 4138,
  "\u907f\u96be\u6240": 4139,
  "\u2581\u6838": 4140,
  "\u4e16\u4e4b": 4141,
  "\u50ac\u7720": 4142,
  "\u6211\u53eb": 4143,
  "\u7684\u5973": 4144,
  "\u788e\u7247": 4145,
  "\u7a81\u7834": 4146,
  "\u8f6f\u840c": 4147,
  "999": 4148,
  "\u2581\u7fa4\u661f": 4149,
  "\u2581\u8bef\u5165": 4150,
  "\u6e38\u620f\u4e2d": 4151,
  "\u4e16\u754c\u6700\u5f3a": 4152,
  "\u4e00\u9897": 4153,
  "\u5bb6\u6559": 4154,
  "\u7684\u82b1": 4155,
  "\u7ecf\u5386": 4156,
  "\u7efd\u653e": 4157,
  "\u9690\u5a5a": 4158,
  "\u2581\u592a\u5b50": 4159,
  "\u5192\u9669\u8005": 4160,
  "\u597d\u611f\u5ea6": 4161,
  "\u60f3\u8ba9\u6211": 4162,
  "\u7f8e\u5f3a\u60e8": 4163,
  "\u8eba\u8d62\u4e86": 4164,
  "\u2581\u8bf4\u597d\u7684": 4165,
  "\u4e5f\u4f1a": 4166,
  "\u4e94\u6761": 4167,
  "\u519c\u95e8": 4168,
  "\u51fa\u751f": 4169,
  "\u5f03\u5b50": 4170,
  "\u5f3a\u543b": 4171,
  "\u6c42\u4f60": 4172,
  "\u8fd9\u6b21": 4173,
  "\u963b\u6b62": 4174,
  "\u2581\u4fee\u70bc": 4175,
  "\u2581\u5341\u5e74": 4176,
  "\u771f\u4e0d\u662f": 4177,
  "\u2581\u5e26\u7740\u7cfb\u7edf": 4178,
  "\u2581\u6211\u53d8\u6210\u4e86": 4179,
  "\u5929\u6daf": 4180,
  "\u6574\u987f": 4181,
  "\u6df1\u6d77": 4182,
  "\u8bb8\u613f": 4183,
  "\u9ed1\u9053": 4184,
  "\u2581\u602a\u8c08": 4185,
  "\u547d\u8fd0\u7684": 4186,
  "\u4e0d\u7231": 4187,
  "\u957f\u7684": 4188,
  "\u2581\u4f60\u662f": 4189,
  "\u4e0d\u77e5\u9053": 4190,
  "\u4e4b\u795e\u7ea7": 4191,
  "\u6211\u4fee\u4ed9": 4192,
  "\u7684\u5b69\u5b50": 4193,
  "\u7f16\u5e74\u53f2": 4194,
  "\u7f8e\u53c8\u98d2": 4195,
  "\u5728\u63d0\u74e6\u7279": 4196,
  "\u7684\u5e78\u798f\u751f\u6d3b": 4197,
  "\u2581\u201c": 4198,
  "\u4e09\u5b9d": 4199,
  "\u517d\u592b": 4200,
  "\u53bf\u4ee4": 4201,
  "\u56de\u6536": 4202,
  "\u5b9d\u85cf": 4203,
  "\u5c01\u5370": 4204,
  "\u6210\u7cbe": 4205,
  "\u75af\u5b50": 4206,
  "\u8d77\u98de": 4207,
  "\u9b54\u517d": 4208,
  "\u2581\u53ea\u662f": 4209,
  "\u2581\u5c71\u6751": 4210,
  "\u5973\u4e3b\u4eec": 4211,
  "\u2581\u836f": 4212,
  "\u6025\u4e86": 4213,
  "\u660e\u671d": 4214,
  "\u7f8e\u56fd": 4215,
  "\u8e0f\u4e0a": 4216,
  "\u2581\u62dc\u6258": 4217,
  "\u2581\u6843\u82b1": 4218,
  "\u2581\u73b0\u5b9e": 4219,
  "\u2581\u8001\u5b50": 4220,
  "\u540c\u4eba\u6587": 4221,
  "\u5f00\u5c40\u7ed1\u5b9a": 4222,
  "\u6211\u5728\u53e4\u4ee3": 4223,
  "\u4e00\u68a6": 4224,
  "\u5144\u59b9": 4225,
  "\u5c0f\u65f6": 4226,
  "\u5e0c\u513f": 4227,
  "\u63a8\u6f14": 4228,
  "\u672a\u77e5": 4229,
  "\u70ed\u641c": 4230,
  "\u778e\u5b50": 4231,
  "\u2581\u4e07\u65cf": 4232,
  "\u2581\u4ebf\u4e07": 4233,
  "\u2581\u865a\u7a7a": 4234,
  "\u4e0d\u4f1a\u88ab": 4235,
  "\u5251\u795e\u57df": 4236,
  "\u6ca1\u95ee\u9898": 4237,
  "\u2581\u603b\u88c1\u7684": 4238,
  "\u679c\u7136\u6709\u95ee\u9898": 4239,
  "\u2581\u4f20": 4240,
  "\u2581\u8d2b": 4241,
  "\u4e4b\u77b3": 4242,
  "\u56fd\u738b": 4243,
  "\u5821\u5792": 4244,
  "\u5f71\u5b50": 4245,
  "\u6551\u4e0b": 4246,
  "\u2581\u8054\u76df": 4247,
  "\u7f57\u5fb7\u5c9b": 4248,
  "\u2581\u4e0d\u4e00\u6837": 4249,
  "\u2581\u62ff": 4250,
  "\u4faf\u95e8": 4251,
  "\u57fa\u91d1": 4252,
  "\u730e\u6237": 4253,
  "\u76d6\u4e16": 4254,
  "\u9152\u5e97": 4255,
  "\u2581\u53ea\u8981": 4256,
  "\u592b\u4eba\u53c8": 4257,
  "\u5f81\u670d\u4e16\u754c": 4258,
  "\u6bc1\u706d\u4e16\u754c": 4259,
  "HE": 4260,
  "\u2581\u6731": 4261,
  "\u4e3a\u5e08": 4262,
  "\u4e59\u5973": 4263,
  "\u5145\u6ee1": 4264,
  "\u519c\u6751": 4265,
  "\u522b\u592a": 4266,
  "\u5728\u4e0b": 4267,
  "\u5927\u7237": 4268,
  "\u5978\u81e3": 4269,
  "\u5f53\u7136": 4270,
  "\u2581\u5929\u751f": 4271,
  "\u5f52\u6765\u7684": 4272,
  "\u2581\u4e34": 4273,
  "\u2581\u5e08": 4274,
  "\u4ea4\u9519": 4275,
  "\u4eb2\u540e": 4276,
  "\u4f17\u79bd": 4277,
  "\u4f46\u6211": 4278,
  "\u6323\u624e": 4279,
  "\u660e\u975e": 4280,
  "\u7206\u53d1": 4281,
  "\u7206\u70b8": 4282,
  "\u751f\u5316": 4283,
  "\u2581\u7530\u56ed": 4284,
  "\u2581\u884c\u8d70": 4285,
  "\u52a8\u7269\u56ed": 4286,
  "\u653e\u8fc7\u6211": 4287,
  "\u9ad8\u51b7\u6821\u82b1": 4288,
  "\u2581\u6211\u5728\u4e1c\u4eac": 4289,
  "\u2581\u667a": 4290,
  "\u2581\u7a77": 4291,
  "\u4e13\u5bb6": 4292,
  "\u4f19\u4f34": 4293,
  "\u602a\u7684": 4294,
  "\u6d41\u5e74": 4295,
  "\u81ea\u52a8": 4296,
  "\u98ce\u8d77": 4297,
  "\u2581\u592b\u541b": 4298,
  "\u4f55\u96e8\u67f1": 4299,
  "\u2581\u5b87\u667a\u6ce2": 4300,
  "\u2581\u82e6": 4301,
  "\u4e4b\u6b87": 4302,
  "\u4f60\u8fd8": 4303,
  "\u5077\u5077": 4304,
  "\u53f2\u8bd7": 4305,
  "\u798f\u5b9d": 4306,
  "\u7a0b\u5e8f": 4307,
  "\u7f8e\u6f2b": 4308,
  "\u2581\u91cf\u5b50": 4309,
  "\u4e0d\u88c5\u4e86": 4310,
  "\u4e4b\u6211\u6709": 4311,
  "\u2581\u53f6\u7f57\u4e3d\u4e4b": 4312,
  "\u2581\u62f3": 4313,
  "\u4eba\u5fc3": 4314,
  "\u51fa\u73b0": 4315,
  "\u53cd\u51fb": 4316,
  "\u5bb6\u6709": 4317,
  "\u5bf0\u5b87": 4318,
  "\u6709\u4f60": 4319,
  "\u7ec6\u80de": 4320,
  "\u7ee7\u7eed": 4321,
  "\u8d35\u5973": 4322,
  "\u968f\u7b14": 4323,
  "\u2581\u54ea\u5412": 4324,
  "\u5c0f\u7956\u5b97": 4325,
  "\u6210\u795e\u4e86": 4326,
  "\u641e\u4e8b\u60c5": 4327,
  "\u8dd1\u8def\u4e86": 4328,
  "\u6ee1\u7ea7\u5927\u4f6c": 4329,
  "\u5e73\u9759\u7684\u751f\u6d3b": 4330,
  "\u2581\u5ac1": 4331,
  "\u2581\u8f6c": 4332,
  "\u5143\u748b": 4333,
  "\u5168\u90e8": 4334,
  "\u5251\u5c0a": 4335,
  "\u5730\u65b9": 4336,
  "\u5a07\u5a18": 4337,
  "\u5e87\u62a4": 4338,
  "\u5f02\u517d": 4339,
  "\u660f\u541b": 4340,
  "\u6625\u98ce": 4341,
  "\u7231\u604b": 4342,
  "\u771f\u7406": 4343,
  "\u7f8e\u8c8c": 4344,
  "\u7ffb\u76d8": 4345,
  "\u2581\u5dc5\u5cf0": 4346,
  "\u6211\u88ab\u8feb": 4347,
  "\u771f\u7684\u662f": 4348,
  "\u2581\u9000\u5a5a\u540e": 4349,
  "\u2581\u4f60\u662f\u6211\u7684": 4350,
  "\u2581\u7a7f\u8d8a\u540e\u6211": 4351,
  "\u2581\u6536": 4352,
  "\u5a03\u5a03": 4353,
  "\u64cd\u4f5c": 4354,
  "\u662f\u53ea": 4355,
  "\u795e\u5c0a": 4356,
  "\u89ca\u89ce": 4357,
  "\u8d76\u51fa": 4358,
  "\u2581\u4e07\u7269": 4359,
  "\u2581\u540e\u5bab": 4360,
  "\u2581\u7edd\u54c1": 4361,
  "\u2581\u843d\u9b44": 4362,
  "\u2581\u8bf8\u795e": 4363,
  "\u75c5\u5a07\u5927\u4f6c": 4364,
  "\u7684\u4e8c\u6b21\u5143": 4365,
  "\u2581\u4eac": 4366,
  "\u2581\u5983": 4367,
  "\u2581\u9a91": 4368,
  "\u5168\u573a": 4369,
  "\u5403\u8d27": 4370,
  "\u6559\u80b2": 4371,
  "\u6c42\u5a5a": 4372,
  "\u8ffd\u6211": 4373,
  "\u904d\u5730": 4374,
  "\u2581\u5bd2\u95e8": 4375,
  "\u2581\u795e\u4e4b": 4376,
  "\u2581\u9ad8\u8fbe": 4377,
  "\u2581\u9ed1\u8272": 4378,
  "\u5c0f\u841d\u8389": 4379,
  "\u6361\u56de\u5bb6": 4380,
  "\u7684\u5e7b\u60f3": 4381,
  "\u53ec\u5524\u7cfb\u7edf": 4382,
  "\u4e00\u5200": 4383,
  "\u4e00\u628a": 4384,
  "\u4e09\u751f": 4385,
  "\u4e0a\u73ed": 4386,
  "\u53e4\u4eba": 4387,
  "\u5f00\u5929": 4388,
  "\u6218\u8230": 4389,
  "\u6293\u4f4f": 4390,
  "\u65e0\u5ea6": 4391,
  "\u82b1\u94b1": 4392,
  "\u8eab\u4e0a": 4393,
  "\u8ffd\u6094": 4394,
  "\u9b54\u541b": 4395,
  "\u2581\u7231\u4e0a": 4396,
  "\u2581\u7537\u795e": 4397,
  "\u2581\u7b2c\u4e8c": 4398,
  "\u4e09\u5c81\u534a": 4399,
  "\u7684\u90a3\u4e9b": 4400,
  "\u2581\u83b2\u82b1\u697c": 4401,
  "\u2581\u4e4c": 4402,
  "\u2581\u542f": 4403,
  "\u5165\u95e8": 4404,
  "\u51b0\u5c01": 4405,
  "\u5feb\u8dd1": 4406,
  "\u699c\u4e00": 4407,
  "\u2581\u771f\u5b9e": 4408,
  "\u2581\u94a2\u94c1": 4409,
  "\u51e4\u50b2\u5929": 4410,
  "\u53cc\u80de\u80ce": 4411,
  "\u6697\u604b\u6211": 4412,
  "\u5f00\u59cb\u4fee\u4ed9": 4413,
  "\u2581\u65af": 4414,
  "\u2581\u4ed6\u7684": 4415,
  "\u5f53\u8001\u5a46": 4416,
  "\u641e\u4e8b\u4e1a": 4417,
  "\u2581\u51f6": 4418,
  "\u2581\u620f": 4419,
  "\u5b9e\u4e60": 4420,
  "\u66b4\u9732": 4421,
  "\u795e\u8005": 4422,
  "\u2581\u503e\u4e16": 4423,
  "\u2581\u5f92\u513f": 4424,
  "\u2581\u965b\u4e0b": 4425,
  "\u5c71\u6d77\u7ecf": 4426,
  "\u653b\u7565\u6211": 4427,
  "\u6709\u7cfb\u7edf": 4428,
  "\u7684\u4f20\u8bf4": 4429,
  "\u7684\u5f02\u4e16": 4430,
  "\u2581\u7f8e\u5c11\u5973": 4431,
  "\u6821\u56ed\u751f\u6d3b": 4432,
  "\u56fd\u5e08": 4433,
  "\u62bd\u8c61": 4434,
  "\u8ba4\u8bc6": 4435,
  "\u9006\u4e16": 4436,
  "\u4fee\u4ed9\u8def": 4437,
  "\u56e4\u7269\u8d44": 4438,
  "\u4e16\u754c\u9996\u5bcc": 4439,
  "\u5b66\u56ed\u90fd\u5e02": 4440,
  "\u7684\u6211\u5c45\u7136": 4441,
  "\u5077\u542c\u6211\u5fc3\u58f0": 4442,
  "\u2581\u5ba0\u7269\u5c0f\u7cbe\u7075": 4443,
  "\u2581\u537f": 4444,
  "\u2581\u65b9": 4445,
  "\u5341\u5927": 4446,
  "\u622a\u6559": 4447,
  "\u6253\u7a7f": 4448,
  "\u8dea\u4e0b": 4449,
  "\u5728\u53e4\u4ee3": 4450,
  "\u7684\u5c11\u5e74": 4451,
  "\u7684\u6211\u548c": 4452,
  "\u7b2c\u4e00\u5929": 4453,
  "\u6211\u53ea\u662f\u4e2a": 4454,
  "\u65e0\u9650\u5347\u7ea7": 4455,
  "\u2581\u5173\u4e8e\u6211\u8f6c\u751f": 4456,
  "\u2581\u80cc": 4457,
  "\u2581\u866b": 4458,
  "\u4f5c\u4e3a": 4459,
  "\u5175\u5668": 4460,
  "\u5730\u4e3b": 4461,
  "\u603b\u88ab": 4462,
  "\u6302\u673a": 4463,
  "\u65e0\u5947": 4464,
  "\u732b\u54aa": 4465,
  "\u7ba1\u5bb6": 4466,
  "\u2581\u4e00\u4e16": 4467,
  "\u2581\u76d7\u7b14": 4468,
  "\u9526\u8863\u536b": 4469,
  "\u90fd\u662f\u6211\u7684": 4470,
  "\u2581\u504f": 4471,
  "\u2581\u65e9": 4472,
  "\u592d\u5bff": 4473,
  "\u5c14\u53f7": 4474,
  "\u795e\u57df": 4475,
  "\u2581\u8bb0\u5fc6": 4476,
  "\u6ca1\u60f3\u5230": 4477,
  "\u2581\u516c\u8def\u6c42\u751f": 4478,
  "\u2581\u4f17": 4479,
  "\u2581\u4f59": 4480,
  "\u2581\u5de6": 4481,
  "\u4e0d\u61c2": 4482,
  "\u51fa\u624b": 4483,
  "\u56e0\u4e3a": 4484,
  "\u5c0f\u5175": 4485,
  "\u5f53\u6210": 4486,
  "\u6574\u6d3b": 4487,
  "\u9ed1\u5fc3": 4488,
  "\u2581\u624b\u63e1": 4489,
  "\u2581\u6c38\u751f": 4490,
  "\u4e4b\u7a7f\u8d8a": 4491,
  "\u767d\u773c\u72fc": 4492,
  "\u7684\u5973\u4eba": 4493,
  "\u7684\u9a91\u58eb": 4494,
  "\u5f02\u4e16\u754c\u751f\u6d3b": 4495,
  "\u2581\u6211\u7684\u5973\u53cb\u662f": 4496,
  "JO": 4497,
  "cp": 4498,
  "\u2581\u4e61": 4499,
  "\u4eba\u5bb6": 4500,
  "\u4f1a\u64a9": 4501,
  "\u5218\u5907": 4502,
  "\u533b\u5723": 4503,
  "\u5341\u4e5d": 4504,
  "\u536b\u5bab": 4505,
  "\u5c0f\u9b3c": 4506,
  "\u660e\u672b": 4507,
  "\u795e\u68cd": 4508,
  "\u7ec8\u6210": 4509,
  "\u820d\u53cb": 4510,
  "\u8bbe\u5b9a": 4511,
  "\u8d8a\u5f3a": 4512,
  "\u9526\u7ee3": 4513,
  "\u2581\u604b\u7efc": 4514,
  "\u2581\u6211\u7ed9": 4515,
  "\u7684\u547d\u8fd0": 4516,
  "\u8eab\u4efd\u88ab": 4517,
  "\u9b54\u672f\u5e08": 4518,
  "\u2581\u6e05\u7a7f\u4e4b": 4519,
  "\u2581\u90a3\u4e9b\u5e74": 4520,
  "\u2581\u672b\u65e5\u91cd\u751f": 4521,
  "bu": 4522,
  "\u2581\u601d": 4523,
  "\u2581\u8fb9": 4524,
  "\u4e00\u591c": 4525,
  "\u5510\u50e7": 4526,
  "\u5a5a\u793c": 4527,
  "\u8d85\u51f6": 4528,
  "\u2581\u5361\u724c": 4529,
  "\u2581\u5b97\u95e8": 4530,
  "\u2581\u7eb5\u6a2a": 4531,
  "\u2581\u8def\u4eba": 4532,
  "\u2581\u9690\u5a5a": 4533,
  "\u4e0e\u5979\u7684": 4534,
  "\u690d\u7269\u4eba": 4535,
  "\u2581\u5728\u672b\u4e16": 4536,
  "\u2581\u840c\u5b66\u56ed": 4537,
  "\u2581\u6597\u7834\u82cd\u7a79": 4538,
  "\u8d44\u672c\u5bb6\u5c0f\u59d0": 4539,
  "\u2581\u5bc2": 4540,
  "\u51c6\u5907": 4541,
  "\u840c\u59b9": 4542,
  "\u9999\u6c5f": 4543,
  "\u258120": 4544,
  "\u2581\u50b2\u4e16": 4545,
  "\u2581\u592a\u53e4": 4546,
  "\u5c0f\u7ea2\u5a18": 4547,
  "\u662f\u600e\u6837": 4548,
  "\u6cfd\u62c9\u65af": 4549,
  "\u2581\u50bb": 4550,
  "\u2581\u554a": 4551,
  "\u2581\u82f1": 4552,
  "\u2581\u964c": 4553,
  "\u4e4b\u9014": 4554,
  "\u4ee4\u4f7f": 4555,
  "\u5341\u516d": 4556,
  "\u5458\u5de5": 4557,
  "\u548c\u5c1a": 4558,
  "\u795e\u5b50": 4559,
  "\u8d85\u8d8a": 4560,
  "\u901f\u901a": 4561,
  "\u4ebf\u70b9\u70b9": 4562,
  "\u5927\u4f6c\u4eec": 4563,
  "\u7a7f\u4e03\u96f6": 4564,
  "\u8ffd\u6094\u83ab\u53ca": 4565,
  "3:": 4566,
  "\u2581\u5bcc": 4567,
  "\u5251\u8c6a": 4568,
  "\u5341\u5c81": 4569,
  "\u53f2\u4e0a": 4570,
  "\u771f\u7231": 4571,
  "\u7c98\u4eba": 4572,
  "\u2581\u4e0d\u706d": 4573,
  "\u2581\u795e\u5947": 4574,
  "\u7684\u672a\u6765": 4575,
  "\u6253\u9020\u6700\u5f3a": 4576,
  "\u4e0a\u5e1d": 4577,
  "\u5510\u671d": 4578,
  "\u60c5\u62a5": 4579,
  "\u6211\u90fd": 4580,
  "\u7406\u8bba": 4581,
  "\u7f51\u7edc": 4582,
  "\u2581\u6211\u5728\u4fee\u4ed9\u754c": 4583,
  "\u2581\u738b\u8005\u8363\u8000\u4e4b": 4584,
  "\u2581\u6f5c": 4585,
  "\u4e5d\u95e8": 4586,
  "\u5168\u90fd": 4587,
  "\u533b\u9662": 4588,
  "\u5341\u4e2a": 4589,
  "\u53cd\u6740": 4590,
  "\u5a07\u517b": 4591,
  "\u5ba0\u5a5a": 4592,
  "\u6742\u5f79": 4593,
  "\u68fa\u6750": 4594,
  "\u707e\u96be": 4595,
  "\u795e\u7ecf": 4596,
  "\u2581\u4e5d\u5929": 4597,
  "\u2581\u5a46\u5a46": 4598,
  "\u2581\u6700\u7ec8": 4599,
  "\u2581\u73ab\u7470": 4600,
  "\u2581\u65e0\u654c\u4ece": 4601,
  "\u2581\u540d\u4fa6\u63a2\u67ef\u5357": 4602,
  "\u2581\u8d8a": 4603,
  "\u4ee3\u4ef7": 4604,
  "\u5230\u5904": 4605,
  "\u661f\u7a79": 4606,
  "\u68a6\u5e7b": 4607,
  "\u8c8c\u7f8e": 4608,
  "\u95fa\u5973": 4609,
  "\u2581\u5730\u5e9c": 4610,
  "\u2581\u6b66\u6797": 4611,
  "\u2581\u6c5f\u5c71": 4612,
  "\u2581\u7ea2\u5c18": 4613,
  "\u4e0d\u662f\u597d": 4614,
  "\u5973\u4e3b\u64ad": 4615,
  "\u7684\u4e00\u751f": 4616,
  "\u2581\u6e38\u620f\u738b\u4e4b": 4617,
  "\u7684\u5d29\u574f\u4e4b\u65c5": 4618,
  "\u2581\u5854": 4619,
  "\u2581\u6696": 4620,
  "\u2581\u7fbd": 4621,
  "\u5b9d\u5178": 4622,
  "\u6361\u6f0f": 4623,
  "\u7740\u4f60": 4624,
  "\u79fb\u52a8": 4625,
  "\u897f\u7433": 4626,
  "\u8d77\u4e86": 4627,
  "\u9677\u9631": 4628,
  "\u2581\u5168\u5458": 4629,
  "\u2581\u5348\u591c": 4630,
  "\u2581\u5730\u4e0b": 4631,
  "\u2581\u5f02\u4e16\u4e4b": 4632,
  "\u7384\u5b66\u5927\u4f6c": 4633,
  "\u82f1\u96c4\u8054\u76df": 4634,
  "\u2581\u5fd8": 4635,
  "\u4e4b\u5f71": 4636,
  "\u4e50\u961f": 4637,
  "\u591c\u884c": 4638,
  "\u5927\u6740": 4639,
  "\u592a\u5e73": 4640,
  "\u5996\u5a06": 4641,
  "\u6027\u522b": 4642,
  "\u60f9\u6211": 4643,
  "\u6559\u5ba4": 4644,
  "\u661f\u7684": 4645,
  "\u7761\u89c9": 4646,
  "\u2581\u52a8\u6f2b": 4647,
  "\u2581\u7687\u5e1d": 4648,
  "\u2581\u7ee7\u627f": 4649,
  "\u5728\u6cf0\u62c9": 4650,
  "\u5973\u9b54\u5934": 4651,
  "\u2581\u4eb2\u7231\u7684": 4652,
  "\u2581\u5c0f\u5e08\u59b9": 4653,
  "\u2581\u91cd\u751f\u5230": 4654,
  "\u2581\u9ed1\u795e\u8bdd": 4655,
  "\u624d\u4e0d\u4f1a\u88ab": 4656,
  "\u2581\u7a7f\u8d8a\u65f6\u7a7a": 4657,
  "\u2581\u7a7f\u6210\u6076\u6bd2\u5973\u914d": 4658,
  "MC": 4659,
  "\u2581\u523a": 4660,
  "\u4e07\u82b1": 4661,
  "\u4ed9\u541b": 4662,
  "\u54ea\u6709": 4663,
  "\u6211\u4e43": 4664,
  "\u2581\u6027\u8f6c": 4665,
  "\u2581\u6781\u9053": 4666,
  "\u5979\u6210\u4e86": 4667,
  "\u5c0f\u751c\u59bb": 4668,
  "\u6211\u80fd\u53ec\u5524": 4669,
  "\u2581\u60b2": 4670,
  "\u2581\u6885": 4671,
  "\u2581\u9a6d": 4672,
  "\u4e07\u91cc": 4673,
  "\u4e4b\u5883": 4674,
  "\u4ed9\u533b": 4675,
  "\u5b64\u513f": 4676,
  "\u5c06\u6211": 4677,
  "\u8425\u9500": 4678,
  "\u9738\u4e1a": 4679,
  "\u2581\u4fee\u7f57": 4680,
  "\u2581\u5343\u91d1": 4681,
  "\u5c0f\u516c\u4e3b": 4682,
  "\u66ff\u8eab\u4f7f\u8005": 4683,
  "\u7684\u6211\u7adf\u7136": 4684,
  "\u2581\u5168\u7403\u9ad8\u6b66": 4685,
  "\u5c48\u670d": 4686,
  "\u653e\u624b": 4687,
  "\u6b27\u7687": 4688,
  "\u6cd5\u533b": 4689,
  "\u706b\u7206": 4690,
  "\u963f\u5c14": 4691,
  "\u5373\u65e0\u654c": 4692,
  "\u5c0f\u4e16\u754c": 4693,
  "\u76ee\u6807\u662f": 4694,
  "30": 4695,
  "\u2581\u5316": 4696,
  "\u2581\u8c0b": 4697,
  "\u5207\u9ed1": 4698,
  "\u522b\u8dd1": 4699,
  "\u53cc\u5b50": 4700,
  "\u53ef\u6015": 4701,
  "\u5b8c\u6210": 4702,
  "\u6284\u5bb6": 4703,
  "\u683c\u683c": 4704,
  "\u72c2\u4e09": 4705,
  "\u8700\u5c71": 4706,
  "\u2581hp": 4707,
  "\u2581\u6c49\u672b": 4708,
  "\u544a\u8bc9\u6211": 4709,
  "\u600e\u4e48\u7834": 4710,
  "\u7834\u9632\u4e86": 4711,
  "\u9006\u88ad\u4eba\u751f": 4712,
  "\u2581\u6211\u771f\u7684\u4e0d\u662f": 4713,
  "\u4e4b\u7269": 4714,
  "\u51a5\u738b": 4715,
  "\u6076\u9f99": 4716,
  "\u6218\u529b": 4717,
  "\u754c\u7684": 4718,
  "\u8389\u96c5": 4719,
  "\u2581\u6d41\u653e": 4720,
  "\u2581\u79d1\u5b66": 4721,
  "\u6545\u4e8b\u96c6": 4722,
  "\u8bbe\u8ba1\u5e08": 4723,
  "\u6211\u7adf\u6210\u4e86": 4724,
  "\u7384\u5e7b\u4e16\u754c": 4725,
  "\u2581\u5bb6\u65cf\u4fee\u4ed9": 4726,
  "\u2581\u672b\u4e16\u6765\u4e34": 4727,
  "\u2581\u60a0": 4728,
  "\u2581\u66ff": 4729,
  "\u4f01\u4e1a": 4730,
  "\u4f20\u4eba": 4731,
  "\u513f\u7ae5": 4732,
  "\u5165\u8d58": 4733,
  "\u5347\u804c": 4734,
  "\u53ea\u8981": 4735,
  "\u5c11\u5e05": 4736,
  "\u5de8\u517d": 4737,
  "\u62c9\u6ee1": 4738,
  "\u795e\u9f99": 4739,
  "\u7cbe\u82f1": 4740,
  "\u9634\u95f4": 4741,
  "\u2581\u533b\u5983": 4742,
  "\u2581\u738b\u724c": 4743,
  "\u8bfb\u6211\u5fc3": 4744,
  "\u2581\u97e9\u5a31\u4e4b": 4745,
  "\u2581\u5999": 4746,
  "\u4e0b\u6765": 4747,
  "\u4e94\u884c": 4748,
  "\u5bb6\u95e8": 4749,
  "\u5de5\u7a0b": 4750,
  "\u5e0c\u96c5": 4751,
  "\u6d3b\u547d": 4752,
  "\u7b26\u534e": 4753,
  "\u8759\u8760": 4754,
  "\u8fdc\u7684": 4755,
  "\u2581\u4e00\u53ea": 4756,
  "\u2581\u5973\u4eba": 4757,
  "\u2581\u6c38\u591c": 4758,
  "\u2581\u8d58\u5a7f": 4759,
  "\u4e0d\u5f97\u4e0d": 4760,
  "\u5916\u661f\u4eba": 4761,
  "\u5d29\u574f\u7684": 4762,
  "\u600e\u4e48\u90fd": 4763,
  "\u6211\u8001\u5a46": 4764,
  "\u6361\u5230\u4e86": 4765,
  "\u6210\u4e86\u6211\u7684": 4766,
  "\u2581\u7eb3": 4767,
  "\u4e00\u5e1d": 4768,
  "\u4ea4\u7ec7": 4769,
  "\u4ed9\u65cf": 4770,
  "\u5200\u5251": 4771,
  "\u5927\u6c49": 4772,
  "\u60c5\u654c": 4773,
  "\u6210\u5a5a": 4774,
  "\u65af\u7279": 4775,
  "\u660e\u65e5": 4776,
  "\u72c2\u5c11": 4777,
  "\u53bb\u9003\u8352": 4778,
  "\u65e0\u654c\u7684": 4779,
  "\u6731\u5143\u748b": 4780,
  "\u75c5\u5a07\u53cd\u6d3e": 4781,
  "12": 4782,
  "\u4e16\u6c11": 4783,
  "\u4fee\u9053": 4784,
  "\u51fa\u4e16": 4785,
  "\u5229\u5b89": 4786,
  "\u54c8\u54c8": 4787,
  "\u5927\u5c06": 4788,
  "\u6280\u5de7": 4789,
  "\u66b4\u529b": 4790,
  "\u6cd5\u795e": 4791,
  "\u77e5\u8bc6": 4792,
  "\u7ade\u6280": 4793,
  "\u8f89\u591c": 4794,
  "\u4e4b\u540e\u7684": 4795,
  "\u6742\u8d27\u94fa": 4796,
  "\u5f00\u5c40\u6361\u5230": 4797,
  "\u2581\u5408": 4798,
  "\u2581\u77f3": 4799,
  "\u4eba\u9c7c": 4800,
  "\u4f24\u5bb3": 4801,
  "\u5411\u6211": 4802,
  "\u5973\u5a32": 4803,
  "\u5f80\u751f": 4804,
  "\u62bd\u5230": 4805,
  "\u7834\u5929": 4806,
  "\u78be\u538b": 4807,
  "\u2581\u4ed9\u4fa0": 4808,
  "\u2581\u5e08\u7236": 4809,
  "\u2581\u9000\u4f11": 4810,
  "\u2581\u9ec4\u91d1": 4811,
  "\u2581\u9f99\u738b": 4812,
  "\u5206\u624b\u540e": 4813,
  "\u91cd\u751f\u6210": 4814,
  "\u5347\u7ea7\u7cfb\u7edf": 4815,
  "\u2581\u5d29\u574f\u4e2d\u7684": 4816,
  "\u2581\u60f9": 4817,
  "\u519b\u5e08": 4818,
  "\u542c\u89c1": 4819,
  "\u5b66\u6e23": 4820,
  "\u5c0f\u59e8": 4821,
  "\u6289\u62e9": 4822,
  "\u63d0\u53d6": 4823,
  "\u64a9\u6211": 4824,
  "\u6570\u7801": 4825,
  "\u6839\u672c": 4826,
  "\u7684\u8bdd": 4827,
  "\u8bef\u5165": 4828,
  "\u9f99\u4e4b": 4829,
  "\u2581\u5f02\u5e38": 4830,
  "\u2581\u6697\u5f71": 4831,
  "\u53d6\u8c6a\u593a": 4832,
  "\u5fa1\u517d\u5e08": 4833,
  "\u6211\u8f6c\u8eab": 4834,
  "\u6bd4\u6211\u66f4": 4835,
  "\u2581\u6728\u53f6\u4e4b": 4836,
  "\u7684\u4e8c\u4e09\u4e8b": 4837,
  "\u84c4\u8c0b\u5df2\u4e45": 4838,
  "\u4e0d\u8f68": 4839,
  "\u51e1\u5c18": 4840,
  "\u611f\u89c9": 4841,
  "\u627e\u5230": 4842,
  "\u62ff\u4e86": 4843,
  "\u7f8a\u7f8a": 4844,
  "\u8001\u7239": 4845,
  "\u2581\u7b2c\u4e09": 4846,
  "\u2581\u7ea8\u7ed4": 4847,
  "\u53d7\u6b22\u8fce": 4848,
  "\u5e73\u65e0\u5947": 4849,
  "\u662f\u53cd\u6d3e": 4850,
  "\u2581\u9664": 4851,
  "\u505a\u68a6": 4852,
  "\u5996\u5983": 4853,
  "\u5e73\u6de1": 4854,
  "\u6349\u5996": 4855,
  "\u6f14\u6280": 4856,
  "\u795e\u901a": 4857,
  "\u7b26\u5492": 4858,
  "\u7f51\u53cb": 4859,
  "\u9017\u6bd4": 4860,
  "\u9762\u524d": 4861,
  "\u9886\u5bfc": 4862,
  "\u2581\u5929\u8d4b": 4863,
  "\u9b54\u7269\u5a18": 4864,
  "\u9ed1\u83b2\u82b1": 4865,
  "\u2581\u5c31\u7b97\u662f": 4866,
  "\u2581\u8bf7\u53eb\u6211": 4867,
  "\u2581\u5168\u6c11\u89c9\u9192": 4868,
  "\u2581\u7a7f\u8d8a\u5230\u5f02\u4e16\u754c": 4869,
  "in": 4870,
  "\u4f60\u5728": 4871,
  "\u5dee\u70b9": 4872,
  "\u5f69\u793c": 4873,
  "\u6c89\u6ca6": 4874,
  "\u8054\u7f51": 4875,
  "\u2581\u66b4\u541b": 4876,
  "\u2581\u6c11\u95f4": 4877,
  "\u2581\u9047\u89c1": 4878,
  "\u2581\u6211\u5e26\u7740": 4879,
  "\u2581\u80a1": 4880,
  "\u4e00\u4ee3": 4881,
  "\u4e2d\u5fc3": 4882,
  "\u543e\u4e43": 4883,
  "\u601d\u8bae": 4884,
  "\u602a\u5f02": 4885,
  "\u610f\u96be": 4886,
  "\u70e6\u607c": 4887,
  "\u2581\u4e5d\u96f6": 4888,
  "\u2581\u65c5\u884c": 4889,
  "\u2581\u7834\u788e": 4890,
  "\u522b\u4eba\u7684": 4891,
  "\u592b\u4eba\u5979": 4892,
  "\u5c11\u5e74\u7684": 4893,
  "\u6d88\u5931\u7684": 4894,
  "\u72ac\u591c\u53c9": 4895,
  "\u2581\u6211\u4e0d\u60f3": 4896,
  "\u7684\u5f02\u4e16\u754c\u751f\u6d3b": 4897,
  "\u2581\u8d77": 4898,
  "\u5211\u4fa6": 4899,
  "\u5bf9\u7167": 4900,
  "\u6297\u6218": 4901,
  "\u6447\u6eda": 4902,
  "\u6697\u591c": 4903,
  "\u2581\u5316\u8eab": 4904,
  "\u2581\u7eff\u8336": 4905,
  "\u5047\u5c11\u7237": 4906,
  "\u4e00\u4e0d\u5c0f\u5fc3": 4907,
  "\u4e1c\u5317": 4908,
  "\u4e89\u950b": 4909,
  "\u5760\u843d": 4910,
  "\u5bbf\u654c": 4911,
  "\u5e7c\u513f": 4912,
  "\u68a6\u9b47": 4913,
  "\u7edd\u4ee3": 4914,
  "\u8fdc\u5f81": 4915,
  "\u9053\u957f": 4916,
  "\u91cd\u8981": 4917,
  "\u91cd\u8fd4": 4918,
  "\u9b54\u4fee": 4919,
  "194": 4920,
  "\u2581\u5e08\u59d0": 4921,
  "\u2581\u65e0\u53cc": 4922,
  "\u2581\u730e\u4eba": 4923,
  "\u2581\u7981\u5fcc": 4924,
  "\u7684\u5c0f\u8bf4": 4925,
  "\u9b54\u6cd5\u4f7f": 4926,
  "\u2581\u4e56": 4927,
  "\u4e0a\u7ebf": 4928,
  "\u4e2a\u4eba": 4929,
  "\u5168\u56fd": 4930,
  "\u5979\u5728": 4931,
  "\u59ae\u5a05": 4932,
  "\u767b\u9876": 4933,
  "\u795e\u5947": 4934,
  "\u8ff7\u5bab": 4935,
  "\u2581\u6361\u4e2a": 4936,
  "\u2581\u8868\u767d": 4937,
  "\u2581\u8c0d\u6218": 4938,
  "\u5973\u53cb\u662f": 4939,
  "\u5b66\u9662\u7684": 4940,
  "\u7684\u6211\u60f3": 4941,
  "\u8f7b\u5c0f\u8bf4": 4942,
  "\u78a7\u84dd\u822a\u7ebf": 4943,
  "\u2581\u70ae\u7070\u5973\u914d": 4944,
  "\u2581\u9752\u6885\u7af9\u9a6c": 4945,
  "......": 4946,
  "\u4e4b\u7ffc": 4947,
  "\u542f\u52a8": 4948,
  "\u5bb6\u5c0f": 4949,
  "\u707e\u5384": 4950,
  "\u7b2c\u4e94": 4951,
  "\u7cca\u5496": 4952,
  "\u95f4\u8c0d": 4953,
  "\u96f7\u5288": 4954,
  "\u9f99\u7684": 4955,
  "\u2581\u4e5d\u9704": 4956,
  "\u2581\u5e7d\u51a5": 4957,
  "\u2581\u6f02\u4eae": 4958,
  "\u4e16\u8f6e\u56de": 4959,
  "\u4f20\u8bf4\u4e4b": 4960,
  "\u5de5\u667a\u80fd": 4961,
  "\u96c7\u4f63\u5175": 4962,
  "\u2581\u4ece\u706b\u5f71": 4963,
  "\u767e\u4ebf\u7269\u8d44": 4964,
  "\u53d8\u6210\u5973\u5b69\u5b50": 4965,
  "\u2581\u70c8": 4966,
  "\u5b98\u573a": 4967,
  "\u5e72\u7ffb": 4968,
  "\u6211\u8fd8": 4969,
  "\u6743\u529b": 4970,
  "\u6b22\u6109": 4971,
  "\u71c3\u70e7": 4972,
  "\u2581\u5251\u4ed9": 4973,
  "\u2581\u5c71\u6cb3": 4974,
  "\u2581\u8111\u53f6": 4975,
  "\u52c7\u8005\u7684": 4976,
  "\u666e\u901a\u7684": 4977,
  "\u2581\u5d29\u574f\u7684": 4978,
  "\u2581\u5148\u5a5a\u540e\u7231": 4979,
  "\u2581\u5f00\u5c40\u6210\u4e3a": 4980,
  "\u2581\u7a7f\u8d8a\u6597\u7f57": 4981,
  "an": 4982,
  "\u2581\u51f0": 4983,
  "\u2581\u6298": 4984,
  "\u4e0a\u53e4": 4985,
  "\u4f2a\u5a18": 4986,
  "\u53bb\u7684": 4987,
  "\u5723\u4e3b": 4988,
  "\u5e72\u6389": 4989,
  "\u5fc3\u673a": 4990,
  "\u604b\u66f2": 4991,
  "\u6536\u5272": 4992,
  "\u654c\u4eba": 4993,
  "\u6d77\u76d7": 4994,
  "\u7b49\u6211": 4995,
  "\u8d22\u795e": 4996,
  "\u9ed1\u4e1d": 4997,
  "\u2581\u65e0\u540d": 4998,
  "\u2581\u7f51\u604b": 4999,
  "\u2581\u9000\u5a5a": 5000,
  "\u4f60\u4eec\u7684": 5001,
  "\u6211\u4e0d\u60f3": 5002,
  "1980": 5003,
  "\u5012\u8d34": 5004,
  "\u63a5\u53d7": 5005,
  "\u6559\u7a0b": 5006,
  "\u9a6f\u670d": 5007,
  "\u4f20\u5947\u4e4b": 5008,
  "\u7ba1\u7406\u5c40": 5009,
  "\u8bf7\u4e0d\u8981": 5010,
  "\u662f\u4e0d\u662f\u641e\u9519\u4e86\u4ec0\u4e48": 5011,
  "16": 5012,
  "\u2581\u643a": 5013,
  "\u2581\u708e": 5014,
  "\u2581\u70df": 5015,
  "\u5584\u826f": 5016,
  "\u56de\u54cd": 5017,
  "\u56e0\u679c": 5018,
  "\u5a07\u592b": 5019,
  "\u5b8c\u5168": 5020,
  "\u5bf9\u8bdd": 5021,
  "\u62d0\u8d70": 5022,
  "\u683c\u6597": 5023,
  "\u6e29\u6696": 5024,
  "\u7206\u6539": 5025,
  "\u7559\u6b65": 5026,
  "\u8ddf\u73ed": 5027,
  "\u90a3\u5e74": 5028,
  "\u9738\u51cc": 5029,
  "\u2581\u7279\u5de5": 5030,
  "\u592a\u64a9\u4eba": 5031,
  "\u5973\u660e\u661f": 5032,
  "\u7ed3\u5a5a\u4e86": 5033,
  "\u7684\u4e16\u754c\u4e4b\u65c5": 5034,
  "\u7684\u7a7f\u8d8a\u4e4b\u65c5": 5035,
  "\u8d70\u4e0a\u4eba\u751f\u5dc5\u5cf0": 5036,
  "\u4fe1\u5f92": 5037,
  "\u51fa\u6ca1": 5038,
  "\u51fa\u72f1": 5039,
  "\u5267\u900f": 5040,
  "\u53d1\u751f": 5041,
  "\u56de\u56fd": 5042,
  "\u5fc3\u601d": 5043,
  "\u623f\u5ba2": 5044,
  "\u62e5\u62b1": 5045,
  "\u63d0\u5347": 5046,
  "\u6f02\u6d41": 5047,
  "\u7c89\u4e1d": 5048,
  "\u8389\u8389": 5049,
  "\u9601\u4e0b": 5050,
  "\u2581\u7bee\u7403": 5051,
  "\u2581\u81ea\u7531": 5052,
  "\u65b0\u624b\u6751": 5053,
  "\u6765\u79cd\u7530": 5054,
  "\u9ed8\u793a\u5f55": 5055,
  "\u7cfb\u7edf\u5e26\u6211": 5056,
  "\u2581\u59cb": 5057,
  "\u2581\u5b50": 5058,
  "\u2581\u6768": 5059,
  "\u2581\u871c": 5060,
  "\u2581\u8fdf": 5061,
  "\u4f1a\u957f": 5062,
  "\u53c8\u5a07": 5063,
  "\u53e6\u7c7b": 5064,
  "\u56da\u7981": 5065,
  "\u624b\u6e38": 5066,
  "\u62a5\u6069": 5067,
  "\u670d\u52a1": 5068,
  "\u8282\u76ee": 5069,
  "\u8981\u505a": 5070,
  "\u8fd1\u6218": 5071,
  "\u2581\u6211\u672c": 5072,
  "\u2581\u751f\u5316": 5073,
  "\u5c0f\u795e\u533b": 5074,
  "\u98ce\u4e91\u4e4b": 5075,
  "\u5546\u4e1a\u5e1d\u56fd": 5076,
  "\u6050\u6016\u6e38\u620f": 5077,
  "\u91cd\u751f\u540e\u6211": 5078,
  "\u2581\u5492\u672f\u56de\u6218": 5079,
  "me": 5080,
  "\u4e00\u7b11": 5081,
  "\u53d8\u4e86": 5082,
  "\u548c\u4eb2": 5083,
  "\u5973\u9891": 5084,
  "\u6606\u4ed1": 5085,
  "\u6740\u75af": 5086,
  "\u6f06\u9ed1": 5087,
  "\u8c01\u8bf4": 5088,
  "\u2581\u5e9f\u7269": 5089,
  "\u2581\u7535\u7ade": 5090,
  "\u7a7f\u8d8a\u7684": 5091,
  "\u9000\u5a5a\u540e": 5092,
  "\u2581\u6211\u5c45\u7136": 5093,
  "\u2581\u65e0\u654c\u7684\u6211": 5094,
  "\u2581\u8b66": 5095,
  "\u4f01\u8c37": 5096,
  "\u5047\u9762": 5097,
  "\u5206\u949f": 5098,
  "\u5251\u4e09": 5099,
  "\u5bab\u6597": 5100,
  "\u5bf9\u51b3": 5101,
  "\u6211\u8d70": 5102,
  "\u6240\u8c13": 5103,
  "\u6253\u8d4f": 5104,
  "\u72d9\u51fb": 5105,
  "\u8005\u4e4b": 5106,
  "\u82cf\u9192": 5107,
  "\u9f99\u5973": 5108,
  "\u2581\u4e00\u80ce": 5109,
  "\u2581\u51e4\u51f0": 5110,
  "\u2581\u804c\u4e1a": 5111,
  "\u4e4b\u6211\u4e3a": 5112,
  "\u4fee\u6539\u5668": 5113,
  "\u60f9\u4e0d\u8d77": 5114,
  "\u7f8e\u597d\u7684": 5115,
  "\u2581\u5f00\u5c40\u5c31": 5116,
  "\u2581\u7a7f\u6210\u6076\u6bd2": 5117,
  "\u2581\u7b2c\u56db\u5929\u707e": 5118,
  "\u4e0a\u5b66": 5119,
  "\u516b\u5c81": 5120,
  "\u5f6a\u608d": 5121,
  "\u60ca\u8273": 5122,
  "\u64cd\u63a7": 5123,
  "\u6536\u670d": 5124,
  "\u6ca6\u4e3a": 5125,
  "\u9738\u6c14": 5126,
  "\u2581\u543e\u4e43": 5127,
  "\u2581\u6df1\u6d77": 5128,
  "\u2581\u82f1\u7075": 5129,
  "\u2581\u9996\u5e2d": 5130,
  "\u4e8c\u5341\u5e74": 5131,
  "\u53ea\u6709\u6211": 5132,
  "\u641e\u57fa\u5efa": 5133,
  "\u8bf7\u53eb\u6211": 5134,
  "\u7a7f\u8d8a\u4e4b\u65c5": 5135,
  "\u2581\u95f2": 5136,
  "\u2581\u968b": 5137,
  "\u4ece\u4e0d": 5138,
  "\u60a8\u7684": 5139,
  "\u6709\u75c5": 5140,
  "\u2581\u548c\u79bb": 5141,
  "\u2581\u5976\u7238": 5142,
  "\u2581\u626e\u6f14": 5143,
  "\u5ba0\u4e0a\u763e": 5144,
  "\u6c42\u6211\u522b": 5145,
  "\u767e\u5206\u767e": 5146,
  "\u9006\u88ad\u8bb0": 5147,
  "\u2581\u6211\u7adf\u7136": 5148,
  "\u5e73\u9759\u751f\u6d3b": 5149,
  "\u2581\u5173\u4e8e\u6211\u53d8\u6210": 5150,
  "\u2581\u76f4": 5151,
  "\u4e0b\u51e1": 5152,
  "\u4e0d\u6015": 5153,
  "\u5a5a\u7ea6": 5154,
  "\u5bb3\u6015": 5155,
  "\u5e08\u95e8": 5156,
  "\u60ac\u7591": 5157,
  "\u624b\u6413": 5158,
  "\u62bd\u53d6": 5159,
  "\u65e0\u5e38": 5160,
  "\u6821\u957f": 5161,
  "\u6b4c\u59ec": 5162,
  "\u745e\u4e9a": 5163,
  "\u7ecf\u7eaa": 5164,
  "\u7ee7\u6bcd": 5165,
  "\u865a\u65e0": 5166,
  "\u8dd1\u56e2": 5167,
  "\u8fd9\u79cd": 5168,
  "\u90e8\u66f2": 5169,
  "\u2581\u51b0\u5c01": 5170,
  "\u53c8\u5982\u4f55": 5171,
  "\u6267\u884c\u5b98": 5172,
  "\u7cfb\u7edf\u7684": 5173,
  "\u7edd\u5173\u7cfb": 5174,
  "\u4e0d\u592a\u5bf9\u52b2": 5175,
  "\u5927\u6740\u56db\u65b9": 5176,
  "\u6b7b\u4ea1\u6e38\u620f": 5177,
  "\u2581\u4eba\u5728\u539f\u795e": 5178,
  "\u2581\u9738\u9053\u603b\u88c1": 5179,
  "ha": 5180,
  "\u2581\u78a7": 5181,
  "\u2581\u9762": 5182,
  "\u5143\u5e05": 5183,
  "\u533b\u5973": 5184,
  "\u5360\u6709": 5185,
  "\u5751\u7239": 5186,
  "\u5f53\u9053": 5187,
  "\u610f\u4e49": 5188,
  "\u6210\u9b54": 5189,
  "\u6211\u6015": 5190,
  "\u6291\u90c1": 5191,
  "\u6c89\u6d6e": 5192,
  "\u7687\u5973": 5193,
  "\u7687\u5983": 5194,
  "\u7f3a\u5fb7": 5195,
  "\u80cc\u523a": 5196,
  "\u846b\u82a6": 5197,
  "\u9001\u6211": 5198,
  "\u2581\u5723\u5973": 5199,
  "\u2581\u5bbf\u4e3b": 5200,
  "\u2581\u90a3\u4e9b": 5201,
  "\u53c8\u600e\u6837": 5202,
  "\u8def\u660e\u975e": 5203,
  "\u6211\u80fd\u770b\u89c1": 5204,
  "\u795e\u5947\u5b9d\u8d1d": 5205,
  "\u4e00\u672c": 5206,
  "\u4e00\u9996": 5207,
  "\u4e4b\u9ed1": 5208,
  "\u504f\u7231": 5209,
  "\u517d\u5e08": 5210,
  "\u5374\u662f": 5211,
  "\u597d\u5417": 5212,
  "\u5f00\u5fc3": 5213,
  "\u79cd\u65cf": 5214,
  "\u8bf8\u845b": 5215,
  "\u9003\u6740": 5216,
  "\u96be\u9003": 5217,
  "\u2581\u72fc\u4eba": 5218,
  "\u6d1b\u59ae\u5a05": 5219,
  "\u7684\u9b54\u5973": 5220,
  "\u77ed\u89c6\u9891": 5221,
  "\u88ab\u75af\u6279": 5222,
  "\u2581\u804a\u5929\u7fa4": 5223,
  "\u2581\u8ba9\u4f60\u5f53": 5224,
  "\u60ca\u609a\u6e38\u620f": 5225,
  "\u2581\u54e5": 5226,
  "\u2581\u8bfa": 5227,
  "\u4ed9\u738b": 5228,
  "\u517b\u5bb6": 5229,
  "\u6210\u540d": 5230,
  "\u6b66\u8005": 5231,
  "\u6d6a\u6f2b": 5232,
  "\u88ab\u52a8": 5233,
  "\u88ab\u5ba0": 5234,
  "\u8f9e\u804c": 5235,
  "\u2581\u5e7d\u7075": 5236,
  "\u2581\u6210\u795e": 5237,
  "\u2581\u795e\u7684": 5238,
  "\u2581\u9996\u5bcc": 5239,
  "\u4e0e\u4ed6\u7684": 5240,
  "\u730e\u9b54\u4eba": 5241,
  "\u7684\u7231\u604b": 5242,
  "\u91cd\u751f\u4e3a": 5243,
  "\u6211\u91cd\u751f\u4e86": 5244,
  "\u2581\u795e\u8c6a\u7cfb\u7edf": 5245,
  "\u2581\u970d\u683c\u6c83\u5179": 5246,
  "\u2581\u4f11": 5247,
  "\u2581\u5171": 5248,
  "\u2581\u9e23": 5249,
  "\u4e00\u4e07": 5250,
  "\u4e4b\u9b54": 5251,
  "\u5377\u738b": 5252,
  "\u571f\u5730": 5253,
  "\u5802\u5802": 5254,
  "\u5c0f\u5b69": 5255,
  "\u5f3a\u5ba0": 5256,
  "\u6211\u554a": 5257,
  "\u623f\u8f66": 5258,
  "\u6574\u5408": 5259,
  "\u767d\u9a6c": 5260,
  "\u8d76\u6d77": 5261,
  "\u9547\u5b88": 5262,
  "\u2581\u5f11\u795e": 5263,
  "\u2581\u5fc3\u7075": 5264,
  "\u2581\u6c2a\u91d1": 5265,
  "\u2581\u7231\u4e0e": 5266,
  "\u2581\u7384\u95e8": 5267,
  "\u2581\u9ad8\u624b": 5268,
  "\u4e92\u8054\u7f51": 5269,
  "\u4eca\u5929\u4e5f\u8981": 5270,
  "\u6bcf\u5929\u90fd\u60f3": 5271,
  "\u9738\u9053\u603b\u88c1": 5272,
  "\u2581\u5b9d": 5273,
  "\u2581\u8bd7": 5274,
  "\u4e07\u4e8b": 5275,
  "\u4e86\u4f60": 5276,
  "\u4fa0\u4f20": 5277,
  "\u52a0\u73ed": 5278,
  "\u52bf\u529b": 5279,
  "\u5305\u517b": 5280,
  "\u5ac1\u4eba": 5281,
  "\u5b85\u7537": 5282,
  "\u5c0f\u65b0": 5283,
  "\u5e26\u571f": 5284,
  "\u5efa\u9020": 5285,
  "\u608d\u59bb": 5286,
  "\u667a\u6167": 5287,
  "\u89c2\u6d4b": 5288,
  "\u8fd8\u73e0": 5289,
  "\u9009\u79c0": 5290,
  "\u2581\u6b65\u6b65": 5291,
  "\u5b89\u5168\u5c4b": 5292,
  "\u7684\u5973\u5b69": 5293,
  "\u4e03\u5341\u5e74\u4ee3": 5294,
  "\u2581\u88c5": 5295,
  "\u540c\u4f1f": 5296,
  "\u591a\u5e74": 5297,
  "\u7acb\u4e8e": 5298,
  "\u2581\u5929\u5ead": 5299,
  "\u2581\u592a\u9633": 5300,
  "\u2581\u7231\u7684": 5301,
  "\u2581\u804c\u573a": 5302,
  "\u7684\u53cd\u6d3e": 5303,
  "\u7684\u54b8\u9c7c": 5304,
  "\u7684\u8d34\u8eab": 5305,
  "\u8eba\u5e73\u4e86": 5306,
  "\u2581\u4e91\u4e4b\u7fbd": 5307,
  "\u2581\u5931\u5fc6\u540e": 5308,
  "\u2581\u6211\u771f\u7684\u662f": 5309,
  "\u2581F": 5310,
  "\u4e0d\u591f": 5311,
  "\u4e0d\u6b62": 5312,
  "\u4ec7\u4eba": 5313,
  "\u4ed6\u4eba": 5314,
  "\u5224\u5b98": 5315,
  "\u5934\u53f7": 5316,
  "\u5ac1\u5230": 5317,
  "\u5f53\u94fa": 5318,
  "\u6c34\u8d77": 5319,
  "\u7279\u522b": 5320,
  "\u9632\u5fa1": 5321,
  "\u9675\u5bb9": 5322,
  "\u2581\u4e3b\u795e": 5323,
  "\u2581\u751f\u6b7b": 5324,
  "\u5e7c\u513f\u56ed": 5325,
  "\u610f\u96be\u5e73": 5326,
  "\u674e\u4e16\u6c11": 5327,
  "\u2581\u6211\u624d\u4e0d\u662f": 5328,
  "\u2581\u5f97": 5329,
  "\u4e0d\u8d25": 5330,
  "\u54d1\u5df4": 5331,
  "\u56fe\u8c0b": 5332,
  "\u5706\u68a6": 5333,
  "\u590d\u5a5a": 5334,
  "\u5929\u9009": 5335,
  "\u5e05\u54e5": 5336,
  "\u5fa1\u4e3b": 5337,
  "\u60c5\u4e66": 5338,
  "\u60c5\u7eea": 5339,
  "\u6551\u6211": 5340,
  "\u72fc\u72d7": 5341,
  "\u8205\u8205": 5342,
  "\u8bf1\u54c4": 5343,
  "\u9003\u8dd1": 5344,
  "\u91cc\u9762": 5345,
  "\u2581\u574f\u4e86": 5346,
  "\u2581\u795e\u5370": 5347,
  "\u2581\u9526\u9ca4": 5348,
  "\u2581\u98ce\u6d41": 5349,
  "\u4e50\u5b50\u4eba": 5350,
  "\u57fa\u91d1\u4f1a": 5351,
  "\u5c0f\u6545\u4e8b": 5352,
  "\u4e92\u6362\u8eab\u4f53": 5353,
  "\u7684\u9006\u88ad\u4e4b\u8def": 5354,
  "14": 5355,
  "\u2581\u4e11": 5356,
  "\u2581\u5948": 5357,
  "\u2581\u754c": 5358,
  "\u4e0e\u706b": 5359,
  "\u4e5d\u91cd": 5360,
  "\u5341\u56db": 5361,
  "\u548c\u5979": 5362,
  "\u5929\u673a": 5363,
  "\u5bf9\u6297": 5364,
  "\u6668\u66e6": 5365,
  "\u7981\u6b62": 5366,
  "\u8840\u59ec": 5367,
  "\u8ba9\u4ed6": 5368,
  "\u8d1f\u503a": 5369,
  "\u8ffd\u51f6": 5370,
  "\u9752\u5e74": 5371,
  "\u9965\u8352": 5372,
  "\u9e70\u9171": 5373,
  "\u2581\u503e\u57ce": 5374,
  "\u2581\u5929\u542f": 5375,
  "\u2581\u62b1\u6b49": 5376,
  "\u2581\u79bb\u8c31": 5377,
  "\u5fc3\u58f0\u540e": 5378,
  "\u72fc\u4eba\u6740": 5379,
  "\u7684\u65e5\u8bb0": 5380,
  "\u7941\u540c\u4f1f": 5381,
  "\u95ea\u5a5a\u4e86": 5382,
  "\u2581\u5bf9\u4e0d\u8d77": 5383,
  "\u2581\u8d5b\u5c14\u53f7": 5384,
  "\u2581\u5973\u603b\u88c1\u7684": 5385,
  "\u2581\u501f": 5386,
  "\u5211\u8b66": 5387,
  "\u522b\u95f9": 5388,
  "\u53a8\u5e08": 5389,
  "\u58eb\u5175": 5390,
  "\u5a07\u6c14": 5391,
  "\u5bfb\u5b9d": 5392,
  "\u6536\u85cf": 5393,
  "\u6b32\u671b": 5394,
  "\u94f6\u884c": 5395,
  "\u2581\u7537\u4eba": 5396,
  "\u5916\u5356\u5458": 5397,
  "\u5f00\u5c40\u548c": 5398,
  "\u604b\u7231\u6e38\u620f": 5399,
  "\u2581\u68a6\u5e7b\u897f\u6e38": 5400,
  "\u2581\u90fd\u5e02\u4fee\u4ed9": 5401,
  "\u2581\u5f11": 5402,
  "\u53d4\u53d4": 5403,
  "\u5f69\u7968": 5404,
  "\u76f8\u9022": 5405,
  "\u7ae5\u517b": 5406,
  "\u7f57\u65af": 5407,
  "\u81f4\u547d": 5408,
  "\u82cd\u751f": 5409,
  "\u8fdc\u79bb": 5410,
  "\u2581\u6218\u53cc": 5411,
  "\u2581\u6218\u56fd": 5412,
  "\u2581\u7f6a\u6076": 5413,
  "\u2581\u901a\u5929": 5414,
  "\u5f00\u5c40\u5148": 5415,
  "\u7684\u5feb\u4e50": 5416,
  "be": 5417,
  "\u2581\u62c9": 5418,
  "\u2581\u63a2": 5419,
  "\u2581\u80e1": 5420,
  "\u524d\u7684": 5421,
  "\u5927\u590f": 5422,
  "\u5976\u5988": 5423,
  "\u5c14\u7684": 5424,
  "\u5e78\u5b58": 5425,
  "\u7075\u6cc9": 5426,
  "\u7b49\u5206": 5427,
  "\u968f\u4fbf": 5428,
  "\u96c6\u56e2": 5429,
  "\u9996\u9886": 5430,
  "\u2581\u5144\u5f1f": 5431,
  "\u2581\u5979\u7684": 5432,
  "\u2581\u65e5\u672c": 5433,
  "\u2581\u9b54\u795e": 5434,
  "\u2581\u8d85\u65f6\u7a7a": 5435,
  "\u7684\u6211\u60f3\u8981": 5436,
  "\u2581\u672b\u4e16\u6c42\u751f": 5437,
  "\u4e3b\u4efb": 5438,
  "\u4ea4\u54cd": 5439,
  "\u7ef4\u5ea6": 5440,
  "\u2581\u4ed9\u8def": 5441,
  "\u2581\u4f5c\u8005": 5442,
  "\u2581\u5927\u6c49": 5443,
  "\u53f6\u7f57\u4e3d": 5444,
  "\u54ea\u91cc\u9003": 5445,
  "\u6211\u5373\u662f": 5446,
  "\u6c42\u539f\u8c05": 5447,
  "\u6ca6\u9677\u4e86": 5448,
  "\u2581\u644a\u724c\u4e86": 5449,
  "\u5f00\u5c40\u878d\u5408": 5450,
  "\u6a21\u62df\u4eba\u751f": 5451,
  "\u2581\u795e\u79d8\u590d\u82cf": 5452,
  "\u4e0d\u6210": 5453,
  "\u4e4b\u4e89": 5454,
  "\u5fc3\u8df3": 5455,
  "\u61ff\u4f20": 5456,
  "\u7167\u987e": 5457,
  "\u767d\u7ed9": 5458,
  "\u7edd\u55e3": 5459,
  "\u8fd4\u73b0": 5460,
  "\u9955\u992e": 5461,
  "\u2581\u6551\u8d4e": 5462,
  "\u2581\u7f8e\u56fd": 5463,
  "\u4f2f\u5229\u5b89": 5464,
  "\u6211\u53ef\u662f": 5465,
  "\u6709\u70b9\u591a": 5466,
  "\u8001\u516c\u662f": 5467,
  "\u2581\u6f2b\u5a01\u4e4b": 5468,
  "\u2581\u8bf8\u5929\u4ece": 5469,
  "\u5f00\u5c40\u4e00\u4e2a": 5470,
  "\u2581\u6211\u6210\u4e3a\u4e86": 5471,
  "13": 5472,
  "\u2581\u5b81": 5473,
  "\u503e\u5fc3": 5474,
  "\u540d\u67ef": 5475,
  "\u60f3\u8c61": 5476,
  "\u624b\u4e0b": 5477,
  "\u6587\u91cc": 5478,
  "\u6740\u654c": 5479,
  "\u7684\u7537": 5480,
  "\u82f1\u6840": 5481,
  "\u8bf4\u4e86": 5482,
  "\u2581\u82b1\u90fd": 5483,
  "\u4e16\u5b50\u5983": 5484,
  "\u2581\u7a7f\u4e66\u6210": 5485,
  "\u6211\u5728\u5f02\u754c": 5486,
  "\u6211\u771f\u6ca1\u60f3": 5487,
  "\u6b66\u4fa0\u4e16\u754c": 5488,
  "\u2581\u4e0d\u4e00\u6837\u7684": 5489,
  "\u2581\u660e\u65e5\u65b9\u821f\u4e4b": 5490,
  "\u2581\u5355": 5491,
  "\u2581\u65e2": 5492,
  "\u4f1a\u88ab": 5493,
  "\u5bb6\u91cc": 5494,
  "\u62db\u60f9": 5495,
  "\u9053\u5fb7": 5496,
  "\u9b3c\u795e": 5497,
  "\u9e3f\u94a7": 5498,
  "\u5199\u5c0f\u8bf4": 5499,
  "\u7684\u54e5\u54e5": 5500,
  "\u2581\u5feb\u7a7f\u4e4b\u5973\u914d": 5501,
  "\u2581\u711a": 5502,
  "\u4e00\u8eab": 5503,
  "\u4e4b\u7231": 5504,
  "\u518d\u4e34": 5505,
  "\u53c8\u91ce": 5506,
  "\u573a\u9762": 5507,
  "\u6a2a\u6ee8": 5508,
  "\u7b49\u6b7b": 5509,
  "\u2581\u5a07\u5a07": 5510,
  "\u2581\u6211\u90a3": 5511,
  "\u2581\u6e29\u67d4": 5512,
  "\u2581\u7ea2\u8b66": 5513,
  "\u2581\u964d\u4e34": 5514,
  "\u7684\u82f1\u96c4": 5515,
  "\u9020\u7269\u4e3b": 5516,
  "\u91cc\u4e16\u754c": 5517,
  "\u2581\u8d85\u80fd\u529b": 5518,
  "\u4e07\u500d\u8fd4\u8fd8": 5519,
  "\u7a7f\u8d8a\u6210\u4e3a": 5520,
  "\u7cfb\u7edf\u903c\u6211": 5521,
  "ga": 5522,
  "\u2581\u4ea1": 5523,
  "\u2581\u718a": 5524,
  "\u2581\u8a00": 5525,
  "\u4e4b\u5c0f": 5526,
  "\u4e4b\u754c": 5527,
  "\u56de\u53bb": 5528,
  "\u5927\u8302": 5529,
  "\u60ca\u5446": 5530,
  "\u7ec5\u58eb": 5531,
  "\u82bd\u8863": 5532,
  "\u8721\u7b14": 5533,
  "\u9152\u5382": 5534,
  "\u2581\u5251\u9053": 5535,
  "\u2581\u6df1\u591c": 5536,
  "\u2581\u81f3\u9ad8": 5537,
  "\u4e07\u4eba\u5acc": 5538,
  "\u5b88\u62a4\u795e": 5539,
  "\u5e26\u7740\u7cfb\u7edf": 5540,
  "\u2581\u76d7\u5893\u7b14\u8bb0": 5541,
  "\u2581\u6613": 5542,
  "\u2581\u74e6": 5543,
  "\u2581\u8584": 5544,
  "\u2581\u8868": 5545,
  "\u4e3e\u62a5": 5546,
  "\u5237\u65b0": 5547,
  "\u5927\u6e05": 5548,
  "\u5bfb\u6c42": 5549,
  "\u68a6\u91cc": 5550,
  "\u7737\u5c5e": 5551,
  "\u91cd\u5f00": 5552,
  "\u9b54\u754c": 5553,
  "\u2581\u5341\u65e5": 5554,
  "\u2581\u70fd\u706b": 5555,
  "\u2581\u98ce\u6c34": 5556,
  "\u4e0d\u53ef\u4ee5": 5557,
  "\u4f46\u6211\u662f": 5558,
  "\u5979\u4eec\u90fd": 5559,
  "\u5e26\u7403\u8dd1": 5560,
  "\u6211\u5f00\u59cb": 5561,
  "\u6361\u4e86\u4e2a": 5562,
  "\u751f\u6c34\u8d77": 5563,
  "\u7ee7\u627f\u8005": 5564,
  "\u8be5\u600e\u4e48": 5565,
  "\u8fd9\u6837\u7684": 5566,
  "\u9047\u5230\u4e86": 5567,
  "2000": 5568,
  "\u65a9\u5996\u9664\u9b54": 5569,
  "\u2581C": 5570,
  "\u4e00\u73ed": 5571,
  "\u4e2d\u533b": 5572,
  "\u4e71\u821e": 5573,
  "\u51fa\u51fb": 5574,
  "\u522b\u6015": 5575,
  "\u55dc\u8840": 5576,
  "\u5fc3\u4e0a": 5577,
  "\u6218\u59ec": 5578,
  "\u731b\u7537": 5579,
  "\u2581\u53cc\u7a7f": 5580,
  "\u2581\u6781\u9650": 5581,
  "\u2581\u8fd9\u6837": 5582,
  "\u5bf9\u7167\u7ec4": 5583,
  "\u5c31\u662f\u8981": 5584,
  "\u5f53\u9996\u5bcc": 5585,
  "\u2581\u4e0d\u6b63\u7ecf": 5586,
  "\u2581\u4eca\u5929\u7684": 5587,
  "\u53e3\u888b\u5996\u602a": 5588,
  "\u7684\u5fc3\u5c16\u5ba0": 5589,
  "\u2581\u5168\u7403\u707e\u53d8": 5590,
  "\u2581\u5e26\u7740\u7a7a\u95f4": 5591,
  "\u2581\u6276": 5592,
  "\u4e00\u53e3": 5593,
  "\u4e3a\u4eba": 5594,
  "\u4eba\u90fd": 5595,
  "\u5929\u542f": 5596,
  "\u5efa\u56fd": 5597,
  "\u5fe0\u8bda": 5598,
  "\u6212\u6307": 5599,
  "\u7075\u6c14": 5600,
  "\u7279\u6797": 5601,
  "\u8ddd\u79bb": 5602,
  "\u9022\u9b54": 5603,
  "\u2581\u6076\u5973": 5604,
  "\u4e07\u82b1\u7b52": 5605,
  "\u65e0\u60c5\u9053": 5606,
  "\u2581\u4ece\u4eca\u5929": 5607,
  "\u7a7f\u8d8a\u5f02\u4e16\u754c": 5608,
  "\u2581\u6211\u53ea\u662f\u4e00\u4e2a": 5609,
  "\u2581\u6a31": 5610,
  "\u4e5f\u592a": 5611,
  "\u5251\u5e1d": 5612,
  "\u6ca1\u4e86": 5613,
  "\u6d88\u8d39": 5614,
  "\u771f\u4eba": 5615,
  "\u795e\u8bb0": 5616,
  "\u7b11\u50b2": 5617,
  "\u2581\u5929\u5e08": 5618,
  "\u2581\u592d\u5bff": 5619,
  "\u2581\u6211\u624d": 5620,
  "\u2581\u6253\u9020": 5621,
  "\u2581\u98ce\u8d77": 5622,
  "\u6700\u597d\u7684": 5623,
  "\u5e78\u798f\u751f\u6d3b": 5624,
  "\u751f\u5b58\u6cd5\u5219": 5625,
  "8:": 5626,
  "\u2581\u6155": 5627,
  "\u4f20\u8bb0": 5628,
  "\u4fbf\u5229": 5629,
  "\u514b\u745f": 5630,
  "\u517b\u751f": 5631,
  "\u53d1\u8d22": 5632,
  "\u54ed\u5305": 5633,
  "\u571f\u532a": 5634,
  "\u58f0\u97f3": 5635,
  "\u59b2\u5df1": 5636,
  "\u5bb6\u56ed": 5637,
  "\u7687\u671d": 5638,
  "\u82b1\u56ed": 5639,
  "\u82df\u5728": 5640,
  "\u8f69\u8f95": 5641,
  "\u900f\u660e": 5642,
  "\u9053\u5177": 5643,
  "\u9976\u547d": 5644,
  "\u2581\u4e0a\u53e4": 5645,
  "\u2581\u57fa\u56e0": 5646,
  "\u2581\u6211\u8fd9": 5647,
  "\u2581\u73a9\u5bb6": 5648,
  "\u2581\u8de8\u8d8a": 5649,
  "\u51ed\u4ec0\u4e48": 5650,
  "\u5c0f\u9752\u6885": 5651,
  "\u2581\u4ece\u6597\u7f57": 5652,
  "\u2581\u53f2\u4e0a\u6700": 5653,
  "\u2581\u9b54\u738b\u7684": 5654,
  "\u4e0d\u4e00\u6837\u7684": 5655,
  "\u2581\u6211\u771f\u4e0d\u60f3": 5656,
  "\u2581\u90fd\u5e02\u6700\u5f3a": 5657,
  "24": 5658,
  "\u2581\u4e54": 5659,
  "\u2581\u97e9": 5660,
  "\u5492\u672f": 5661,
  "\u5723\u5251": 5662,
  "\u5c0f\u9547": 5663,
  "\u65cf\u957f": 5664,
  "\u662f\u8c01": 5665,
  "\u7f20\u8eab": 5666,
  "\u8d4f\u91d1": 5667,
  "\u8d85\u751c": 5668,
  "\u9634\u8c0b": 5669,
  "\u2581\u5176\u5b9e": 5670,
  "\u2581\u5996\u5c3e": 5671,
  "\u4e00\u4e2a\u4eba": 5672,
  "\u597d\u5144\u5f1f": 5673,
  "\u767d\u5207\u9ed1": 5674,
  "\u7684\u529b\u91cf": 5675,
  "\u2581\u514b\u82cf\u9c81": 5676,
  "\u6765\u5230\u5d29\u574f": 5677,
  "\u7efc\u6f2b\u4e4b\u65c5": 5678,
  "\u9f50\u5929\u5927\u5723": 5679,
  "\u600e\u4e48\u53ef\u80fd\u662f": 5680,
  "\u2581\u57fa": 5681,
  "\u4e2a\u4e2a": 5682,
  "\u4e3b\u52a8": 5683,
  "\u51a0\u4f4d": 5684,
  "\u53c8\u8f6f": 5685,
  "\u5929\u9b54": 5686,
  "\u601d\u60f3": 5687,
  "\u795e\u519c": 5688,
  "\u2581\u5927\u56fd": 5689,
  "\u2581\u660e\u6708": 5690,
  "\u2581\u9ed1\u767d": 5691,
  "\u6211\u81ea\u5df1": 5692,
  "\u7504\u5b1b\u4f20": 5693,
  "\u7ecf\u7eaa\u4eba": 5694,
  "\"\"\"\"": 5695,
  "\u5f3a\u53d6\u8c6a\u593a": 5696,
  "\u5174\u8da3": 5697,
  "\u52a0\u8eab": 5698,
  "\u5927\u529b": 5699,
  "\u5b34\u653f": 5700,
  "\u5e08\u53d4": 5701,
  "\u5fcd\u672f": 5702,
  "\u608d\u532a": 5703,
  "\u6d41\u8424": 5704,
  "\u897f\u65b9": 5705,
  "\u90e8\u961f": 5706,
  "\u91d1\u4e3b": 5707,
  "\u2581\u539f\u59cb": 5708,
  "\u2581\u5947\u8ff9": 5709,
  "\u2581\u6211\u5c06": 5710,
  "\u2581\u6a31\u82b1": 5711,
  "\u2581\u7edd\u671b": 5712,
  "\u2581\u8f6c\u804c": 5713,
  "\u5168\u4eba\u7c7b": 5714,
  "\u5927\u4e71\u6597": 5715,
  "\u5e87\u62a4\u6240": 5716,
  "\u5f02\u80fd\u8005": 5717,
  "\u6211\u5c45\u7136": 5718,
  "\u771f\u7684\u5f88": 5719,
  "\u4e16\u754c\u4e4b\u65c5": 5720,
  "\u7684\u65e0\u9650\u4e4b\u65c5": 5721,
  "\u2581\u72d0\u5996\u5c0f\u7ea2\u5a18": 5722,
  "\u4e4b\u706b": 5723,
  "\u521b\u98de": 5724,
  "\u5341\u4e00": 5725,
  "\u5ba0\u592b": 5726,
  "\u60b2\u60e8": 5727,
  "\u611a\u4eba": 5728,
  "\u6253\u7834": 5729,
  "\u6c34\u6676": 5730,
  "\u7981\u5730": 5731,
  "\u8001\u864e": 5732,
  "\u8282\u64cd": 5733,
  "\u8fa3\u59bb": 5734,
  "\u96cc\u6027": 5735,
  "\u96f7\u9706": 5736,
  "\"\"\"": 5737,
  "\u2581\u4e09\u5343": 5738,
  "\u2581\u5e78\u798f": 5739,
  "\u2581\u5f71\u540e": 5740,
  "\u2581\u7b28\u86cb": 5741,
  "\u2581\u957f\u5b89": 5742,
  "\u4e94\u6761\u609f": 5743,
  "\u7684\u6218\u4e89": 5744,
  "\u7684\u672b\u65e5": 5745,
  "\u8bf7\u7559\u6b65": 5746,
  "\u5343\u53e4\u4e00\u5e1d": 5747,
  "\u6210\u795e\u4e4b\u8def": 5748,
  "\u2581\u851a\u84dd\u6863\u6848": 5749,
  "11": 5750,
  "\u25810": 5751,
  "\u2581\u6545": 5752,
  "\u4e00\u79d2": 5753,
  "\u4e0a\u4ed9": 5754,
  "\u516b\u91cd": 5755,
  "\u548c\u4ed6": 5756,
  "\u5c3c\u4e9a": 5757,
  "\u603b\u5728": 5758,
  "\u611f\u67d3": 5759,
  "\u6572\u95e8": 5760,
  "\u6d77\u6d0b": 5761,
  "\u767b\u795e": 5762,
  "\u79cd\u690d": 5763,
  "\u7ea2\u8272": 5764,
  "\u88ab\u4eba": 5765,
  "\u8ff7\u8e2a": 5766,
  "\u96c6\u4f53": 5767,
  "\u9b3c\u5b50": 5768,
  "\u2581\u7231\u5728": 5769,
  "\u5012\u8ffd\u6211": 5770,
  "\u5927\u4f6c\u5979": 5771,
  "\u8f7b\u70b9\u5ba0": 5772,
  "\u4eba\u6bd4\u6211\u66f4": 5773,
  "\u53d8\u6210\u5973\u751f": 5774,
  "\u56fe\u8c0b\u4e0d\u8f68": 5775,
  "\u2581\u591a\u5b50\u591a\u798f": 5776,
  "\u2581\u7a7f\u8d8a\u706b\u5f71": 5777,
  "\u2581\u7b2c\u4e94\u4eba\u683c": 5778,
  "\u2581\u638c": 5779,
  "\u2581\u79c1": 5780,
  "\u2581\u9001": 5781,
  "\u2581\u9c7c": 5782,
  "\u4eb2\u624b": 5783,
  "\u51e0\u4e2a": 5784,
  "\u5976\u72d7": 5785,
  "\u5e0c\u814a": 5786,
  "\u5f00\u5e97": 5787,
  "\u6d4b\u8bd5": 5788,
  "\u795e\u529f": 5789,
  "\u7eaf\u60c5": 5790,
  "\u2581\u4ed9\u5c0a": 5791,
  "\u2581\u5143\u7d20": 5792,
  "\u2581\u7a81\u7136": 5793,
  "1999": 5794,
  "\u2581\u4e03\u96f6\u5e74\u4ee3": 5795,
  "\u4e00\u65b9": 5796,
  "\u6267\u638c": 5797,
  "\u6837\u5b50": 5798,
  "\u7ae5\u5e74": 5799,
  "\u8389\u4e9a": 5800,
  "\u8fdc\u70b9": 5801,
  "\u8ffd\u5bfb": 5802,
  "\u9010\u6e10": 5803,
  "\u9e3d\u5b50": 5804,
  "\u2581\u7231\u4f60": 5805,
  "\u5e72\u4ec0\u4e48": 5806,
  "\u6211\u91cd\u751f": 5807,
  "\u2581\u53d8\u8eab\u4e4b": 5808,
  "\u5f3a\u5236\u7231\u4e86": 5809,
  "\u9006\u88ad\u4e4b\u8def": 5810,
  "\u2581\u5173\u4e8e\u6211\u7684": 5811,
  "\u2581\u91cd\u751f\u4e4b\u6211": 5812,
  "\u2581\u94e0\u7532\u52c7\u58eb": 5813,
  "\u2581\u54c8\u5229\u6ce2\u7279\u4e4b": 5814,
  "\u2581\u5f7c": 5815,
  "\u5065\u5eb7": 5816,
  "\u597d\u53cb": 5817,
  "\u5acc\u5f03": 5818,
  "\u6162\u6162": 5819,
  "\u62fe\u8352": 5820,
  "\u6b66\u529f": 5821,
  "\u6b66\u58eb": 5822,
  "\u7231\u8c46": 5823,
  "\u7279\u6444": 5824,
  "\u7687\u4f4d": 5825,
  "\u77ed\u547d": 5826,
  "\u795e\u7947": 5827,
  "\u81ea\u5728": 5828,
  "\u8bb0\u5f97": 5829,
  "\u8f7b\u677e": 5830,
  "\u2581\u5947\u5e7b": 5831,
  "\u2581\u82b1\u5f00": 5832,
  "\u5f53\u56e2\u5ba0": 5833,
  "\u6211\u6709\u65e0\u9650": 5834,
  "\u751f\u5b50\u7cfb\u7edf": 5835,
  "\u2581\u6211\u5728\u672b\u65e5": 5836,
  "\u2581\u672b\u65e5\u6c42\u751f": 5837,
  "\u2581\u56fe": 5838,
  "\u2581\u71d5": 5839,
  "\u2581\u7956": 5840,
  "\u4e0d\u53ca": 5841,
  "\u5076\u9047": 5842,
  "\u5251\u7075": 5843,
  "\u53cc\u7a7f": 5844,
  "\u571f\u8c6a": 5845,
  "\u5c38\u738b": 5846,
  "\u5f71\u4e4b": 5847,
  "\u5f71\u54cd": 5848,
  "\u65e0\u8fb9": 5849,
  "\u6709\u559c": 5850,
  "\u72d7\u8840": 5851,
  "\u80a5\u59bb": 5852,
  "\u83dc\u9e1f": 5853,
  "\u8bfb\u8005": 5854,
  "\u957f\u6b4c": 5855,
  "\u2581\u5192\u724c": 5856,
  "\u2581\u6bd5\u4e1a": 5857,
  "\u4e2d\u4e8c\u75c5": 5858,
  "\u53ea\u60f3\u8fc7": 5859,
  "\u6211\u771f\u662f": 5860,
  "\u6587\u91cc\u7684": 5861,
  "\u2581\u6211\u5bb6\u7684": 5862,
  "\u2581\u67f3": 5863,
  "\u2581\u7d20": 5864,
  "\u4e50\u90e8": 5865,
  "\u51b7\u5bab": 5866,
  "\u522b\u6765": 5867,
  "\u56de\u6863": 5868,
  "\u5927\u5168": 5869,
  "\u5929\u7406": 5870,
  "\u8611\u83c7": 5871,
  "\u2581\u5a07\u8f6f": 5872,
  "\u2581\u6700\u5f31": 5873,
  "\u2581\u795e\u4ed9": 5874,
  "\u59d0\u59d0\u662f": 5875,
  "\u6c42\u590d\u5408": 5876,
  "\u2581\u4f60\u662f\u6211": 5877,
  "\u6211\u4e0d\u5f53\u4e86": 5878,
  "\u795e\u7ea7\u5929\u8d4b": 5879,
  "\u2581\u5168\u6c11\u5fa1\u517d": 5880,
  "\u2581\u5173\u4e8e\u6211\u88ab": 5881,
  "OL": 5882,
  "\u2581\u5173": 5883,
  "\u2581\u7761": 5884,
  "\u2581\u8427": 5885,
  "\u4e8b\u513f": 5886,
  "\u4eca\u65e5": 5887,
  "\u4f5c\u5f0a": 5888,
  "\u503e\u4e16": 5889,
  "\u7269\u54c1": 5890,
  "\u7a7f\u7537": 5891,
  "\u9010\u51fa": 5892,
  "\u2581\u4e0d\u505a": 5893,
  "\u2581\u793e\u6050": 5894,
  "\u2581\u91cd\u6d3b": 5895,
  "\u4ff1\u4e50\u90e8": 5896,
  "\u65e0\u654c\u4ece": 5897,
  "\u2581\u8f6c\u751f\u4e3a": 5898,
  "\u7684\u6211\u53ea\u80fd": 5899,
  "\u2581\u4eba\u5728\u5965\u7279": 5900,
  "\u2581\u4ece\u96f6\u5f00\u59cb": 5901,
  "\u2581\u8f6c\u751f\u5f02\u4e16\u754c": 5902,
  "te": 5903,
  "\u2581\u73af": 5904,
  "\u4e5d\u4e2a": 5905,
  "\u516b\u8352": 5906,
  "\u519b\u5c11": 5907,
  "\u541b\u4e3b": 5908,
  "\u56fd\u7684": 5909,
  "\u5e1d\u9a91": 5910,
  "\u5fc3\u7684": 5911,
  "\u6211\u53ef": 5912,
  "\u6b63\u592a": 5913,
  "\u6d41\u661f": 5914,
  "\u7fa4\u804a": 5915,
  "\u88ab\u62d2": 5916,
  "\u8fd8\u503a": 5917,
  "\u901a\u7075": 5918,
  "\u987e\u603b": 5919,
  "\u9a87\u5ba2": 5920,
  "\u2581\u5149\u4e4b": 5921,
  "\u2581\u5ba0\u59bb": 5922,
  "\u2581\u65e7\u65e5": 5923,
  "\u2581\u706d\u4e16": 5924,
  "\u2581\u8363\u8000": 5925,
  "\u4e00\u5b9a\u8981": 5926,
  "\u4fbf\u5229\u5e97": 5927,
  "\u5931\u5fc6\u540e": 5928,
  "\u672a\u6765\u7684": 5929,
  "\u7ee7\u627f\u4e86": 5930,
  "\u2581\u7f57\u5fb7\u5c9b": 5931,
  "\u62ef\u6551\u8ba1\u5212": 5932,
  "BU": 5933,
  "\u4e00\u7fa4": 5934,
  "\u4e4c\u9e26": 5935,
  "\u5200\u5ba2": 5936,
  "\u540c\u65f6": 5937,
  "\u5a18\u7684": 5938,
  "\u5c0f\u9ed1": 5939,
  "\u5e73\u5b89": 5940,
  "\u5f00\u8352": 5941,
  "\u6211\u5f88": 5942,
  "\u6838\u5f39": 5943,
  "\u6b4c\u624b": 5944,
  "\u6c89\u8ff7": 5945,
  "\u6e38\u5386": 5946,
  "\u764c\u75c7": 5947,
  "\u82b3\u534e": 5948,
  "\u9009\u624b": 5949,
  "\u91cd\u5851": 5950,
  "\u9738\u5ba0": 5951,
  "\u2581\u5669\u68a6": 5952,
  "\u2581\u6253\u5de5": 5953,
  "\u2581\u79bb\u5f00": 5954,
  "\u53ef\u7231\u7684": 5955,
  "\u5728\u7efc\u6f2b": 5956,
  "\u673a\u68b0\u5e08": 5957,
  "\u9006\u88ad\u6210": 5958,
  "\u2581\u9f99\u73e0\u4e4b": 5959,
  "\u6444\u653f\u738b\u7684": 5960,
  "\u85cf\u4e0d\u4f4f\u4e86": 5961,
  "\u2581\u672b\u65e5\u6e38\u620f": 5962,
  "\u2581\u6e38\u620f\u964d\u4e34": 5963,
  "\u4ece\u96f6\u5f00\u59cb\u7684": 5964,
  "\u2581\u5de8": 5965,
  "\u2581\u6e21": 5966,
  "\u4e03\u5e74": 5967,
  "\u4e71\u5165": 5968,
  "\u4e8b\u4e1a": 5969,
  "\u534a\u751f": 5970,
  "\u5bcc\u8d35": 5971,
  "\u5f53\u6211": 5972,
  "\u60e8\u6b7b": 5973,
  "\u623f\u5b50": 5974,
  "\u6838\u5fc3": 5975,
  "\u72c2\u5a7f": 5976,
  "\u767d\u83b2": 5977,
  "\u8bf7\u4f60": 5978,
  "\u9020\u5316": 5979,
  "\u9f99\u59ec": 5980,
  "\u2581\u4ed9\u6b66": 5981,
  "\u2581\u6211\u5988": 5982,
  "\u2581\u6781\u5bd2": 5983,
  "\u5bbf\u4e3b\u5979": 5984,
  "\u5c0f\u59d0\u59d0": 5985,
  "\u65b0\u7eaa\u5143": 5986,
  "\u2581\u8fd9\u5c31\u662f": 5987,
  "\u4f60\u4e5f\u4e0d\u60f3": 5988,
  "\u2581\u6050\u6016\u590d\u82cf": 5989,
  "\u2581\u7edd\u5730\u6c42\u751f": 5990,
  "\u7684\u6211\u53d8\u6210\u4e86": 5991,
  "lp": 5992,
  "\u2581\u5f31": 5993,
  "\u4f17\u4eba": 5994,
  "\u4f5c\u5996": 5995,
  "\u501a\u5929": 5996,
  "\u51f6\u624b": 5997,
  "\u5766\u514b": 5998,
  "\u5c60\u795e": 5999,
  "\u5f69\u8679": 6000,
  "\u6211\u5168": 6001,
  "\u6709\u4f55": 6002,
  "\u6dd8\u5b9d": 6003,
  "\u795e\u5a01": 6004,
  "\u7cbe\u5206": 6005,
  "\u8fd8\u6ca1": 6006,
  "\u968f\u5fc3": 6007,
  "\u9b54\u5bfc": 6008,
  "\u2581\u516c\u5b50": 6009,
  "\u2581\u5929\u4e0a": 6010,
  "\u70bc\u6210\u7684": 6011,
  "\u7684\u4e00\u767e": 6012,
  "\u2581\u6211\u53ef\u4ee5": 6013,
  "\u53ea\u60f3\u6446\u70c2": 6014,
  "\u5973\u5c0a\u4e16\u754c": 6015,
  "\u2581\u5168\u7403\u89c9\u9192": 6016,
  "1:": 6017,
  "\u2581\u9065": 6018,
  "\u4e8c\u6218": 6019,
  "\u4ed9\u9b54": 6020,
  "\u505a\u4e86": 6021,
  "\u5b66\u4f1a": 6022,
  "\u5b66\u5f92": 6023,
  "\u6076\u9b3c": 6024,
  "\u6211\u6700": 6025,
  "\u901a\u795e": 6026,
  "\u9f99\u95e8": 6027,
  "\u2581\u5c81\u6708": 6028,
  "\u2581\u72d0\u72f8": 6029,
  "\u51fa\u6765\u4e86": 6030,
  "\u552f\u4e00\u7684": 6031,
  "\u6211\u8981\u5f53": 6032,
  "\u4e00\u89c1\u949f\u60c5": 6033,
  "\u7684\u6211\u9009\u62e9": 6034,
  "\u2581\u5582": 6035,
  "\u2581\u70b9": 6036,
  "\u2581\u76d8": 6037,
  "\u4e0d\u6309": 6038,
  "\u4f5b\u7cfb": 6039,
  "\u51b3\u6218": 6040,
  "\u5351\u5fae": 6041,
  "\u5403\u918b": 6042,
  "\u5e76\u4e0d": 6043,
  "\u5fae\u7b11": 6044,
  "\u5fc3\u810f": 6045,
  "\u62a2\u6211": 6046,
  "\u65f6\u738b": 6047,
  "\u7537\u751f": 6048,
  "\u75c5\u6001": 6049,
  "\u76db\u590f": 6050,
  "\u76f8\u89c1": 6051,
  "\u7ecf\u7406": 6052,
  "\u8001\u5b9e": 6053,
  "\u8ffd\u4e86": 6054,
  "\u9910\u5385": 6055,
  "\u2581\u4f59\u751f": 6056,
  "\u2581\u5929\u9f99": 6057,
  "\u2581\u6cd5\u5e08": 6058,
  "\u2581\u8bb8\u4f60": 6059,
  "\u2581\u9006\u4e16": 6060,
  "\u2581\u9b45\u9b54": 6061,
  "\u6076\u5a46\u5a46": 6062,
  "\u7ed3\u5a5a\u540e": 6063,
  "\u2581\u5168\u804c\u730e\u4eba": 6064,
  "\u2581\u62ef\u6551\u4e16\u754c": 6065,
  "\u2581\u5175": 6066,
  "\u2581\u96c4": 6067,
  "\u4e13\u6cbb": 6068,
  "\u5199\u7684": 6069,
  "\u5e7d\u51a5": 6070,
  "\u6211\u5df2": 6071,
  "\u6709\u591a": 6072,
  "\u6d1b\u65af": 6073,
  "\u7ec3\u4e60": 6074,
  "\u7fc5\u8180": 6075,
  "\u8dea\u5730": 6076,
  "\u8fde\u63a5": 6077,
  "\u2581\u5927\u5b66": 6078,
  "\u2581\u5e1d\u738b": 6079,
  "\u2581\u6740\u622e": 6080,
  "\u2581\u6743\u529b": 6081,
  "\u2581\u8fd9\u91cc": 6082,
  "\u5374\u8fc7\u5206": 6083,
  "\u6211\u7231\u4f60": 6084,
  "\u7edd\u4e0d\u4f1a": 6085,
  "\u2581\u742a\u4e9a\u5a1c": 6086,
  "\u8721\u7b14\u5c0f\u65b0": 6087,
  "\u2581\u7384\u5b66\u5927\u4f6c": 6088,
  "\u2581\u8be1\u5f02\u4e16\u754c": 6089,
  "36": 6090,
  "\u2581\u966a": 6091,
  "\u4e00\u80ce": 6092,
  "\u4e16\u4ee3": 6093,
  "\u5165\u9b54": 6094,
  "\u516d\u4e2a": 6095,
  "\u5177\u73b0": 6096,
  "\u5305\u5b50": 6097,
  "\u53cd\u8f6c": 6098,
  "\u5403\u4e86": 6099,
  "\u5929\u4e0a": 6100,
  "\u5931\u8e2a": 6101,
  "\u5973\u56e2": 6102,
  "\u5c0f\u667a": 6103,
  "\u5f3a\u5a36": 6104,
  "\u633d\u6b4c": 6105,
  "\u6df7\u5403": 6106,
  "\u80fd\u91cf": 6107,
  "\u8d1e\u89c2": 6108,
  "\u90aa\u5e1d": 6109,
  "\u2581\u4e94\u884c": 6110,
  "\u2581\u5d1b\u8d77": 6111,
  "\u2581\u6b63\u4e49": 6112,
  "\u2581\u8305\u5c71": 6113,
  "\u2581\u8ff7\u5931": 6114,
  "\u4ece\u83b7\u5f97": 6115,
  "\u5927\u9646\u4e4b": 6116,
  "\u8ba9\u6211\u5f53": 6117,
  "\u4fee\u4ed9\u7cfb\u7edf": 6118,
  "\u5f00\u5c40\u622a\u80e1": 6119,
  "\u8d85\u80fd\u529b\u8005": 6120,
  "\u7684\u4e16\u754c\u732e\u4e0a": 6121,
  "\u7684\u5f02\u754c\u4e4b\u65c5": 6122,
  "\u2581\u671b": 6123,
  "\u2581\u67ab": 6124,
  "\u4e0d\u51fa": 6125,
  "\u552f\u6211": 6126,
  "\u5730\u644a": 6127,
  "\u5927\u4fa0": 6128,
  "\u603b\u7edf": 6129,
  "\u6211\u770b": 6130,
  "\u704c\u7bee": 6131,
  "\u795e\u4e3b": 6132,
  "\u798f\u664b": 6133,
  "\u9053\u8def": 6134,
  "\u94bb\u77f3": 6135,
  "\u4e09\u5341\u5e74": 6136,
  "\u5a07\u517b\u4e86": 6137,
  "\u6709\u70b9\u5f3a": 6138,
  "\u901a\u53e4\u4eca": 6139,
  "\u4eac\u5708\u5927\u4f6c": 6140,
  "\u2581\u4eba\u5728\u4e1c\u4eac": 6141,
  "\u2581\u6211\u624d\u4e0d\u8981": 6142,
  "\u4eba\u6bd4\u6211\u66f4\u61c2": 6143,
  "\u2581\u57ce": 6144,
  "\u4ee3\u8a00": 6145,
  "\u4f11\u592b": 6146,
  "\u504f\u8981": 6147,
  "\u53cc\u9762": 6148,
  "\u5973\u6027": 6149,
  "\u5c06\u81f3": 6150,
  "\u5e26\u6765": 6151,
  "\u6253\u94b1": 6152,
  "\u6599\u7406": 6153,
  "\u68a6\u5230": 6154,
  "\u7eb8\u7247": 6155,
  "\u80dc\u5229": 6156,
  "\u840c\u65b0": 6157,
  "\u8fd4\u8fd8": 6158,
  "\u8fd8\u60f3": 6159,
  "\u2581\u4e00\u591c": 6160,
  "\u2581\u4ed6\u4eec": 6161,
  "\u2581\u590f\u65e5": 6162,
  "\u2581\u68a6\u60f3": 6163,
  "\u2581\u98de\u5347": 6164,
  "\u4e09\u5343\u5e74": 6165,
  "\u521b\u9020\u4e86": 6166,
  "\u5b9e\u5728\u592a": 6167,
  "\u7684\u7b2c\u4e00": 6168,
  "\u7ec8\u7ed3\u8005": 6169,
  "\u8f6e\u56de\u8005": 6170,
  "\u91cd\u751f\u7684": 6171,
  "\u91cd\u751f\u8bb0": 6172,
  "\u5929\u547d\u4e4b\u5b50": 6173,
  "\u5973\u626e\u7537\u88c5": 6174,
  "\u2581\u5f00\u5c40\u65e0\u654c": 6175,
  "\u2581\u6d45": 6176,
  "\u2581\u7406": 6177,
  "\u2581\u826f": 6178,
  "\u4f60\u628a": 6179,
  "\u53d6\u7ecf": 6180,
  "\u5929\u4e66": 6181,
  "\u5bb3\u6211": 6182,
  "\u5c0f\u4e11": 6183,
  "\u5f1f\u9b54": 6184,
  "\u5f3a\u5927": 6185,
  "\u6b7b\u6211": 6186,
  "\u738b\u51a0": 6187,
  "\u754c\u4e4b": 6188,
  "\u2581\u5200\u5251": 6189,
  "\u2581\u6d77\u5c9b": 6190,
  "\u2581\u72c2\u98d9": 6191,
  "\u2581\u7edd\u4ee3": 6192,
  "\u4f60\u8001\u5a46": 6193,
  "\u53ec\u5524\u517d": 6194,
  "\u5d29\u5f00\u5c40": 6195,
  "\u81f3\u5c0a\u9aa8": 6196,
  "\u82f1\u96c4\u4f20": 6197,
  "\u2581\u6297\u6218\u4e4b": 6198,
  "\u2581\u6551\u4e16\u4e3b": 6199,
  "\u6539\u53d8\u4e16\u754c": 6200,
  "\u7684\u6211\u53ea\u597d": 6201,
  "\u2581\u5e7b\u60f3\u4e61\u7684": 6202,
  "\u2581\u91cd\u751f\u6210\u4e3a": 6203,
  "\u2581\u585e": 6204,
  "\u4e0d\u5bb9": 6205,
  "\u4e4b\u5723": 6206,
  "\u4e4b\u89c1": 6207,
  "\u4e4b\u98ce": 6208,
  "\u5085\u603b": 6209,
  "\u513f\u5973": 6210,
  "\u51e0\u5e74": 6211,
  "\u539f\u914d": 6212,
  "\u5982\u68a6": 6213,
  "\u59fb\u7f18": 6214,
  "\u5b66\u59b9": 6215,
  "\u5c38\u4f53": 6216,
  "\u65e0\u95f4": 6217,
  "\u767e\u9b3c": 6218,
  "\u786c\u6838": 6219,
  "\u836f\u5e08": 6220,
  "\u83b1\u575e": 6221,
  "\u8ba2\u5a5a": 6222,
  "\u8d4e\u7f6a": 6223,
  "\u8def\u98de": 6224,
  "\u9009\u4e2d": 6225,
  "\u90bb\u5bb6": 6226,
  "\u2581\u534a\u5c9b": 6227,
  "\u2581\u540d\u95e8": 6228,
  "\u2581\u6211\u5e26": 6229,
  "\u2581\u76d8\u70b9": 6230,
  "\u2581\u9b54\u5e7b": 6231,
  "\u51fa\u6765\u7684": 6232,
  "\u5728\u539f\u795e": 6233,
  "\u6210\u957f\u8bb0": 6234,
  "\u81ea\u5df1\u662f": 6235,
  "\u9b54\u5973\u7684": 6236,
  "\u706b\u5f71\u4e16\u754c": 6237,
  "\u7231\u8389\u5e0c\u96c5": 6238,
  "\u2581\u5170": 6239,
  "\u2581\u5206": 6240,
  "\u2581\u9759": 6241,
  "\u516d\u9053": 6242,
  "\u5176\u5999": 6243,
  "\u529f\u592b": 6244,
  "\u5404\u4f4d": 6245,
  "\u5947\u8c2d": 6246,
  "\u5f55\u4e4b": 6247,
  "\u6211\u624d": 6248,
  "\u6211\u9009": 6249,
  "\u62c9\u5fb7": 6250,
  "\u6536\u7559": 6251,
  "\u653b\u51fb": 6252,
  "\u66b4\u8e81": 6253,
  "\u6743\u8c0b": 6254,
  "\u6881\u5c71": 6255,
  "\u7089\u9f0e": 6256,
  "\u8001\u5a18": 6257,
  "\u80fd\u5426": 6258,
  "\u81e3\u670d": 6259,
  "\u8d29\u5356": 6260,
  "\u90fd\u4f1a": 6261,
  "\u91cd\u7f6e": 6262,
  "\u9ed1\u9f99": 6263,
  "\u2581\u5927\u795e": 6264,
  "\u2581\u65e0\u804c": 6265,
  "\u2581\u76db\u5ba0": 6266,
  "\u4e0d\u597d\u5f53": 6267,
  "\u4ec0\u4e48\u4e8b": 6268,
  "\u514b\u745f\u65af": 6269,
  "\u5973\u914d\u5979": 6270,
  "\u8981\u9006\u5929": 6271,
  "lpha": 6272,
  "\u4eba\u8bbe\u5d29\u4e86": 6273,
  "\u75af\u6279\u5927\u4f6c": 6274,
  "\u88ab\u8feb\u6210\u4e3a": 6275,
  "\u2581\u51ef": 6276,
  "\u2581\u535a": 6277,
  "\u2581\u9ebb": 6278,
  "\u4e07\u6cd5": 6279,
  "\u4e0e\u5979": 6280,
  "\u5176\u4ed6": 6281,
  "\u541b\u5fc3": 6282,
  "\u58eb\u90ce": 6283,
  "\u5a18\u80ce": 6284,
  "\u5f03\u5983": 6285,
  "\u6000\u4e86": 6286,
  "\u620f\u5267": 6287,
  "\u6211\u53c8": 6288,
  "\u6709\u5ea7": 6289,
  "\u6740\u6740": 6290,
  "\u6ee1\u95e8": 6291,
  "\u72e0\u4eba": 6292,
  "\u9b54\u9b3c": 6293,
  "\u2581\u4e00\u672c": 6294,
  "\u2581\u4e0b\u5c71": 6295,
  "\u2581\u521b\u9020": 6296,
  "\u2581\u5927\u590f": 6297,
  "\u2581\u5a18\u5b50": 6298,
  "\u2581\u6708\u5149": 6299,
  "\u2581\u6bc1\u706d": 6300,
  "\u4e8c\u5468\u76ee": 6301,
  "\u5f62\u91d1\u521a": 6302,
  "\u4e0d\u53ef\u80fd\u90a3\u4e48": 6303,
  "\u2581\u4e88": 6304,
  "\u2581\u6027": 6305,
  "\u2581\u7237": 6306,
  "\u4e0d\u613f": 6307,
  "\u4ece\u4e00": 6308,
  "\u5341\u4e94": 6309,
  "\u5e08\u5a18": 6310,
  "\u5fc3\u7075": 6311,
  "\u6253\u730e": 6312,
  "\u6253\u8d25": 6313,
  "\u632f\u5174": 6314,
  "\u6e05\u7a7f": 6315,
  "\u6e05\u98ce": 6316,
  "\u6e23\u7239": 6317,
  "\u76f8\u5e08": 6318,
  "\u7eed\u5199": 6319,
  "\u7f57\u9a6c": 6320,
  "\u81ea\u4f20": 6321,
  "\u88d9\u4e0b": 6322,
  "\u8dea\u7740": 6323,
  "\u8eab\u540e": 6324,
  "\u952f\u4eba": 6325,
  "\u975e\u5e38": 6326,
  "300": 6327,
  "\u2581\u4fa6\u63a2": 6328,
  "\u2581\u6587\u91ce": 6329,
  "\u2581\u68a6\u4e2d": 6330,
  "\u2581\u897f\u5e7b": 6331,
  "\u5199\u65e5\u8bb0": 6332,
  "\u590d\u4ec7\u8005": 6333,
  "\u5fc3\u7406\u5b66": 6334,
  "\u4e16\u754c\u4e2d\u7684": 6335,
  "\u2581\u5200\u5251\u795e\u57df": 6336,
  "\u2581\u6211\u7684\u8001\u5a46": 6337,
  "\u2581\u4f4f": 6338,
  "\u2581\u63d0": 6339,
  "\u516c\u654c": 6340,
  "\u523b\u6674": 6341,
  "\u5c4c\u4e1d": 6342,
  "\u6251\u8857": 6343,
  "\u65e0\u6781": 6344,
  "\u6697\u6740": 6345,
  "\u707f\u70c2": 6346,
  "\u7ed9\u4e86": 6347,
  "\u7f51\u5427": 6348,
  "\u8d26\u53f7": 6349,
  "\u8f66\u7978": 6350,
  "\u9b3c\u5dee": 6351,
  "\u2581\u540d\u4e3a": 6352,
  "\u2581\u5931\u4e1a": 6353,
  "\u2581\u5fc3\u52a8": 6354,
  "\u2581\u804a\u658b": 6355,
  "\u540d\u5176\u5999": 6356,
  "\u8bb8\u5927\u8302": 6357,
  "\u9a91\u58eb\u7684": 6358,
  "\u2581\u6211\u53ef\u80fd": 6359,
  "\u6210\u4e3a\u82f1\u96c4": 6360,
  "\u2581\u6700\u540e\u4e00\u4e2a": 6361,
  "\u2581\u70ed": 6362,
  "\u4e0d\u5fd8": 6363,
  "\u5fae\u4fe1": 6364,
  "\u62a5\u4ec7": 6365,
  "\u6559\u7687": 6366,
  "\u6d41\u6c13": 6367,
  "\u6e38\u4fa0": 6368,
  "\u771f\u4ed9": 6369,
  "\u953b\u9020": 6370,
  "\u957f\u5927": 6371,
  "\u9f99\u5957": 6372,
  "\u2581\u535a\u58eb": 6373,
  "\u2581\u5916\u5356": 6374,
  "\u2581\u6740\u6b7b": 6375,
  "\u4e0d\u9760\u8c31": 6376,
  "\u5b87\u667a\u6ce2\u6591": 6377,
  "\u7cfb\u7edf\u5f00\u59cb": 6378,
  "\u91cd\u542f\u4eba\u751f": 6379,
  "\u5b9d\u53ef\u68a6\u4e16\u754c": 6380,
  "\u2581\u5feb\u7a7f\u4e4b\u70ae\u7070": 6381,
  "on": 6382,
  "\u2581\u6d74": 6383,
  "\u4ece\u6b64": 6384,
  "\u5173\u6211": 6385,
  "\u540e\u4f20": 6386,
  "\u54c6\u5566": 6387,
  "\u5730\u56fe": 6388,
  "\u5929\u7684": 6389,
  "\u66f9\u8d3c": 6390,
  "\u72ec\u884c": 6391,
  "\u7687\u5bab": 6392,
  "\u8bb0\u4e4b": 6393,
  "\u8d70\u540e": 6394,
  "\u2581\u4f60\u8bf4": 6395,
  "\u2581\u7687\u4e0a": 6396,
  "\u5c0f\u64a9\u7cbe": 6397,
  "\u4e03\u96f6\u5e74\u4ee3": 6398,
  "\u504f\u6267\u5927\u4f6c": 6399,
  "\u5927\u5c0f\u59d0\u7684": 6400,
  "\u2581\u53f8": 6401,
  "\u2581\u5ae1": 6402,
  "\u2581\u61d2": 6403,
  "\u2581\u9aa8": 6404,
  "\u4fd8\u864f": 6405,
  "\u522b\u518d": 6406,
  "\u5403\u6389": 6407,
  "\u5b50\u5f39": 6408,
  "\u5ba0\u6eba": 6409,
  "\u5bb6\u4f19": 6410,
  "\u5e94\u5bf9": 6411,
  "\u602a\u76d7": 6412,
  "\u626d\u66f2": 6413,
  "\u665a\u4e0a": 6414,
  "\u6bd2\u533b": 6415,
  "\u6eba\u5ba0": 6416,
  "\u7684\u767d": 6417,
  "\u7edd\u5883": 6418,
  "\u8001\u7238": 6419,
  "\u8650\u604b": 6420,
  "\u2581\u4eba\u5076": 6421,
  "\u4e4b\u65e0\u654c": 6422,
  "\u72d0\u72f8\u7cbe": 6423,
  "\u7684\u517b\u6210": 6424,
  "\u2581\u8bba\u5982\u4f55": 6425,
  "\u4ebf\u4e07\u7269\u8d44": 6426,
  "\u6211\u7684\u5929\u8d4b": 6427,
  "\u2581\u5929\u707e\u672b\u4e16": 6428,
  "77": 6429,
  "\u2581\u5185": 6430,
  "\u2581\u53d1": 6431,
  "\u2581\u6563": 6432,
  "\u2581\u788e": 6433,
  "\u4e0d\u7528": 6434,
  "\u5361\u5361": 6435,
  "\u53a8\u5b50": 6436,
  "\u56f4\u57ce": 6437,
  "\u5982\u547d": 6438,
  "\u5e02\u573a": 6439,
  "\u5e9f\u589f": 6440,
  "\u6076\u7075": 6441,
  "\u6211\u7239": 6442,
  "\u6218\u7ebf": 6443,
  "\u65e7\u65e5": 6444,
  "\u65f6\u671f": 6445,
  "\u6c49\u672b": 6446,
  "\u7684\u732b": 6447,
  "\u9006\u98ce": 6448,
  "\u98df\u5802": 6449,
  "\u2581\u5b9e\u6559": 6450,
  "\u2581\u6d77\u6d0b": 6451,
  "\u592a\u56a3\u5f20": 6452,
  "\u5c0f\u4ed9\u5973": 6453,
  "\u7684\u5f1f\u5f1f": 6454,
  "\u7f8e\u5229\u575a": 6455,
  "\u2581\u6307\u6325\u5b98": 6456,
  "\u4f60\u662f\u6211\u7684": 6457,
  "\u6709\u4ebf\u70b9\u70b9": 6458,
  "\u2581\u5b88\u62a4\u751c\u5fc3": 6459,
  "\u2581\u91cd\u751f\u516d\u96f6": 6460,
  "\u2581\u9b54\u738b\u5927\u4eba": 6461,
  "\u2581\u766b": 6462,
  "\u2581\u7eb5": 6463,
  "\u2581\u95e8": 6464,
  "\u2581\u964d": 6465,
  "\u4e09\u89d2": 6466,
  "\u4e4b\u6708": 6467,
  "\u4ea4\u6d41": 6468,
  "\u56de\u6eaf": 6469,
  "\u5b8c\u7ed3": 6470,
  "\u5c0f\u59b9": 6471,
  "\u5e2e\u52a9": 6472,
  "\u5f88\u597d": 6473,
  "\u604b\u6b4c": 6474,
  "\u6211\u5988": 6475,
  "\u6211\u81ea": 6476,
  "\u66b4\u63cd": 6477,
  "\u7740\u8d70": 6478,
  "\u77ac\u95f4": 6479,
  "\u793e\u6b7b": 6480,
  "\u7ec8\u8eab": 6481,
  "\u8005\u4e0e": 6482,
  "\u8def\u8fc7": 6483,
  "\u8fd9\u4e8b": 6484,
  "\u91d1\u4e39": 6485,
  "\u2581\u5929\u7a7a": 6486,
  "\u2581\u5a18\u5a18": 6487,
  "\u2581\u603b\u6709": 6488,
  "\u2581\u6b66\u9b42": 6489,
  "\u2581\u6b7b\u7075": 6490,
  "\u2581\u751c\u5ba0": 6491,
  "\u2581\u7b11\u50b2": 6492,
  "\u2581\u900f\u89c6": 6493,
  "\u505a\u4ec0\u4e48": 6494,
  "\u53d1\u73b0\u4e86": 6495,
  "\u5bf9\u8c61\u662f": 6496,
  "\u6f2b\u753b\u5bb6": 6497,
  "\u7684\u5979\u4eec": 6498,
  "\u7684\u59d0\u59d0": 6499,
  "\u2581\u5728\u5f02\u754c": 6500,
  "\u4eba\u751f\u8d62\u5bb6": 6501,
  "\u5f00\u5c40\u4e00\u53ea": 6502,
  "\u65e0\u9650\u4e16\u754c": 6503,
  "\u8d5b\u535a\u670b\u514b": 6504,
  "or": 6505,
  "\u2581\u59d0": 6506,
  "\u2581\u6bcd": 6507,
  "\u2581\u75f4": 6508,
  "\u2581\u864e": 6509,
  "\u4e0a\u6d77": 6510,
  "\u5267\u573a": 6511,
  "\u5931\u53bb": 6512,
  "\u5f02\u95fb": 6513,
  "\u624d\u6765": 6514,
  "\u65e0\u5948": 6515,
  "\u65e0\u60e8": 6516,
  "\u66a7\u6627": 6517,
  "\u8ba4\u771f": 6518,
  "\u8bef\u4f1a": 6519,
  "\u8c82\u8749": 6520,
  "\u8d25\u72ac": 6521,
  "\u8d64\u7ea2": 6522,
  "\u9006\u5b50": 6523,
  "\u9752\u83b2": 6524,
  "\u2581\u795e\u96d5": 6525,
  "\u4e5d\u5c3e\u72d0": 6526,
  "\u53bb\u79cd\u7530": 6527,
  "1990": 6528,
  "\u75af\u6279\u53cd\u6d3e": 6529,
  "\u2581\u5c11\u5e74\u6b4c\u884c": 6530,
  "\u2581\u672b\u4e16\u5929\u707e": 6531,
  "\u2581\u7a7f\u8d8a\u4e09\u56fd": 6532,
  "23": 6533,
  "\u2581A": 6534,
  "\u2581\u66fe": 6535,
  "\u2581\u767b": 6536,
  "\u4e09\u5c81": 6537,
  "\u4e0e\u767d": 6538,
  "\u5171\u4eab": 6539,
  "\u5341\u5b57": 6540,
  "\u53d1\u80b2": 6541,
  "\u53f3\u624b": 6542,
  "\u5408\u79df": 6543,
  "\u5f03\u5973": 6544,
  "\u6109\u60a6": 6545,
  "\u6210\u5e1d": 6546,
  "\u6559\u6211": 6547,
  "\u661f\u8230": 6548,
  "\u673a\u5a18": 6549,
  "\u7075\u517d": 6550,
  "\u7684\u8def": 6551,
  "\u7b26\u6587": 6552,
  "\u7bee\u575b": 6553,
  "\u8a93\u7ea6": 6554,
  "\u8fd8\u4e0d": 6555,
  "\u906d\u9047": 6556,
  "\u9752\u9f99": 6557,
  "\u98ce\u96e8": 6558,
  "\u2581\u5f1f\u5f1f": 6559,
  "\u4f60\u4e0d\u8981": 6560,
  "\u517d\u8033\u5a18": 6561,
  "\u56de\u6765\u540e": 6562,
  "\u7537\u5b69\u5b50": 6563,
  "\u8d85\u7ea7\u82f1\u96c4": 6564,
  "pc": 6565,
  "\u2581\u5409": 6566,
  "\u2581\u8fd1": 6567,
  "\u4fbf\u662f": 6568,
  "\u5229\u8fe6": 6569,
  "\u591a\u4e86": 6570,
  "\u5929\u7a79": 6571,
  "\u5c04\u96d5": 6572,
  "\u6380\u7ffb": 6573,
  "\u6587\u91ce": 6574,
  "\u68a8\u82b1": 6575,
  "\u68d2\u6897": 6576,
  "\u6b3a\u8bc8": 6577,
  "\u70b9\u6ee1": 6578,
  "\u7239\u7239": 6579,
  "\u7acb\u5fd7": 6580,
  "\u7f8e\u8273": 6581,
  "\u2581\u4e0a\u5e1d": 6582,
  "\u2581\u5e08\u5144": 6583,
  "\u2581\u5f02\u517d": 6584,
  "\u2581\u60c5\u6df1": 6585,
  "\u2581\u884c\u5c38": 6586,
  "\u4e00\u4e2a\u4ebf": 6587,
  "\u4ed6\u75af\u4e86": 6588,
  "\u5c0f\u5c11\u7237": 6589,
  "\u795e\u7cfb\u7edf": 6590,
  "\u9a6c\u7532\u53c8": 6591,
  "\u2581\u4ece\u5d29\u574f": 6592,
  "\u6709\u4ec0\u4e48\u574f": 6593,
  "\u73b0\u5b9e\u4e16\u754c": 6594,
  "\u2581\u4eba\u5728\u65b9\u821f": 6595,
  "\u2581\u53d8\u6210\u5973\u751f": 6596,
  "\u2581\u5218": 6597,
  "\u2581\u54b1": 6598,
  "\u2581\u5c3c": 6599,
  "\u2581\u5d29": 6600,
  "\u2581\u67e5": 6601,
  "\u4e4b\u8eab": 6602,
  "\u516c\u4f1a": 6603,
  "\u517b\u5973": 6604,
  "\u51fa\u95e8": 6605,
  "\u5927\u9662": 6606,
  "\u59cb\u7956": 6607,
  "\u5c71\u91cc": 6608,
  "\u5f00\u7684": 6609,
  "\u5f3a\u56fd": 6610,
  "\u5f3a\u7684": 6611,
  "\u5fd8\u8bb0": 6612,
  "\u6050\u9f99": 6613,
  "\u60c5\u611f": 6614,
  "\u6211\u56e4": 6615,
  "\u65e5\u6708": 6616,
  "\u6c49\u5b50": 6617,
  "\u7279\u79cd": 6618,
  "\u76f8\u4f34": 6619,
  "\u7ea2\u773c": 6620,
  "\u8fd8\u597d": 6621,
  "\u975e\u6d32": 6622,
  "\u2581\u9b54\u9b3c": 6623,
  "\u7684\u8230\u957f": 6624,
  "\u7834\u82cd\u7a79": 6625,
  "\u6b7b\u7075\u6cd5\u5e08": 6626,
  "\u6d77\u8d3c\u4e16\u754c": 6627,
  "\u2581\u5ae1\u5973\u91cd\u751f": 6628,
  "\u53d8\u6210\u7f8e\u5c11\u5973": 6629,
  "\u2581\u5976": 6630,
  "\u2581\u6742": 6631,
  "\u2581\u6811": 6632,
  "\u53bb\u6b7b": 6633,
  "\u5973\u4fa0": 6634,
  "\u5c18\u57c3": 6635,
  "\u6084\u6084": 6636,
  "\u65e0\u6094": 6637,
  "\u674e\u4e8c": 6638,
  "\u6f47\u6d12": 6639,
  "\u73a9\u5177": 6640,
  "\u7adf\u6210": 6641,
  "\u82b1\u7684": 6642,
  "\u8bdb\u4ed9": 6643,
  "\u9001\u8fdb": 6644,
  "\u96be\u9053": 6645,
  "\u9b54\u5e7b": 6646,
  "\u9ed1\u5ba2": 6647,
  "\u2581\u4e0d\u597d": 6648,
  "\u2581\u4e1c\u5317": 6649,
  "\u2581\u6211\u4e5f": 6650,
  "\u2581\u661f\u7403": 6651,
  "\u2581\u6821\u8349": 6652,
  "\u2581\u707e\u5384": 6653,
  "\u2581\u70bc\u91d1": 6654,
  "\u2581\u95ee\u9898": 6655,
  "\u2581\u9ad8\u4e2d": 6656,
  "\u4ed6\u4eec\u90fd": 6657,
  "\u6094\u75af\u4e86": 6658,
  "\u8d70\u5267\u60c5": 6659,
  "\u8d77\u6765\u4e86": 6660,
  "\u5f00\u59cb\u9006\u88ad": 6661,
  "\u662f\u4ec0\u4e48\u4f53\u9a8c": 6662,
  "\u2581\u8fdb\u51fb\u7684\u5de8\u4eba": 6663,
  "\u2581\u574f": 6664,
  "\u2581\u8d2a": 6665,
  "\u4e00\u6b65": 6666,
  "\u4e2d\u4eba": 6667,
  "\u4eb2\u7239": 6668,
  "\u4ee5\u8eab": 6669,
  "\u4f7f\u9b54": 6670,
  "\u4fd8\u83b7": 6671,
  "\u504f\u5fc3": 6672,
  "\u522b\u4e71": 6673,
  "\u56de\u4e8b": 6674,
  "\u661f\u4e4b": 6675,
  "\u6b64\u751f": 6676,
  "\u72c2\u533b": 6677,
  "\u840c\u5983": 6678,
  "\u8fea\u4e9a": 6679,
  "\u96be\u5ea6": 6680,
  "\u2581\u4e5d\u8f6c": 6681,
  "\u2581\u5076\u50cf": 6682,
  "\u2581\u5367\u5e95": 6683,
  "\u2581\u6218\u6597": 6684,
  "\u2581\u751c\u871c": 6685,
  "\u4e3b\u89d2\u56e2": 6686,
  "\u771f\u9999\u4e86": 6687,
  "\u8981\u6210\u4e3a": 6688,
  "\u541e\u566c\u8fdb\u5316": 6689,
  "\u9009\u62e9\u7cfb\u7edf": 6690,
  "\u2581\u6ee1\u7ea7\u5927\u4f6c": 6691,
  "\u4eba\u751f\u6a21\u62df\u5668": 6692,
  "\u2581\u51b2": 6693,
  "\u2581\u80ce": 6694,
  "\u4f20\u7edf": 6695,
  "\u52a1\u5458": 6696,
  "\u57f9\u80b2": 6697,
  "\u5c14\u767b": 6698,
  "\u5e74\u4e0b": 6699,
  "\u5f53\u7239": 6700,
  "\u62cd\u5356": 6701,
  "\u6587\u5b57": 6702,
  "\u6587\u6b66": 6703,
  "\u7ad9\u5728": 6704,
  "\u82b1\u90fd": 6705,
  "\u843d\u699c": 6706,
  "\u8650\u4e86": 6707,
  "\u8d77\u70b9": 6708,
  "\u9053\u4eba": 6709,
  "\u91d1\u724c": 6710,
  "\u95ea\u5149": 6711,
  "\u2581\u4e0e\u4f60": 6712,
  "\u2581\u4e7e\u5764": 6713,
  "\u2581\u673a\u52a8": 6714,
  "\u2581\u7a7f\u56de": 6715,
  "\u2581\u7ea2\u8272": 6716,
  "\u2581\u98ce\u4e91": 6717,
  "\u4e07\u4e8b\u5c4b": 6718,
  "\u4e94\u5343\u5e74": 6719,
  "\u540d\u573a\u9762": 6720,
  "\u7531\u6211\u6765": 6721,
  "\u4fee\u4ed9\u5927\u4f6c": 6722,
  "\u2581\u89c2": 6723,
  "\u4eba\u6e23": 6724,
  "\u4f2f\u7235": 6725,
  "\u5175\u56e2": 6726,
  "\u53c8\u662f": 6727,
  "\u5978\u5546": 6728,
  "\u5f03\u5987": 6729,
  "\u65af\u5361": 6730,
  "\u8428\u65af": 6731,
  "\u8682\u8681": 6732,
  "\u8d70\u8089": 6733,
  "\u8fd4\u5229": 6734,
  "\u955c\u6d41": 6735,
  "\u95ea\u95ea": 6736,
  "\u9b42\u5e08": 6737,
  "bug": 6738,
  "\u2581\u4e16\u5b50": 6739,
  "\u2581\u524d\u592b": 6740,
  "\u2581\u5927\u68a6": 6741,
  "\u2581\u660e\u671d": 6742,
  "\u2581\u661f\u5149": 6743,
  "\u2581\u75c5\u6001": 6744,
  "\u2581\u8bf7\u95ee": 6745,
  "\u4fee\u771f\u8005": 6746,
  "\u5927\u59d0\u59d0": 6747,
  "\u5ac1\u519b\u5b98": 6748,
  "\u6211\u8eab\u8fb9": 6749,
  "\u6253\u6e38\u620f": 6750,
  "\u80cc\u540e\u7684": 6751,
  "\u2581\u8fd9\u4e0d\u662f": 6752,
  "\u6076\u9b54\u679c\u5b9e": 6753,
  "\u751f\u5b58\u624b\u518c": 6754,
  "\u2581\u9b54\u5973\u5c0f\u59d0": 6755,
  "5:": 6756,
  "\u2581S": 6757,
  "\u2581\u4f0f": 6758,
  "\u2581\u5760": 6759,
  "\u2581\u5815": 6760,
  "\u2581\u9633": 6761,
  "\u4e2d\u6d77": 6762,
  "\u4e5d\u4e16": 6763,
  "\u5168\u4e66": 6764,
  "\u516c\u7235": 6765,
  "\u51b7\u9759": 6766,
  "\u51fa\u9003": 6767,
  "\u53c8\u6765": 6768,
  "\u5403\u996d": 6769,
  "\u64a9\u4e86": 6770,
  "\u65b9\u5757": 6771,
  "\u6b7b\u5728": 6772,
  "\u70bc\u6c14": 6773,
  "\u7334\u5b50": 6774,
  "\u751c\u751c": 6775,
  "\u7a81\u51fb": 6776,
  "\u80a5\u5b85": 6777,
  "\u9752\u94dc": 6778,
  "\u2581\u8fd9\u4f4d": 6779,
  "\u2581\u90fd\u662f": 6780,
  "\u2581\u91cd\u6765": 6781,
  "\u4e0a\u5927\u5b66": 6782,
  "\u4eb2\u7231\u7684": 6783,
  "\u4f60\u522b\u8dd1": 6784,
  "\u590d\u4ec7\u8bb0": 6785,
  "\u59b9\u59b9\u7684": 6786,
  "\u2581\u4e07\u4eba\u5acc": 6787,
  "\u2581\u6b7b\u795e\u4e4b": 6788,
  "\u53cd\u6d3e\u7684\u6211": 6789,
  "\u90a3\u4e9b\u4e8b\u513f": 6790,
  "\u2581\u4e03\u96f6\u519b\u5a5a": 6791,
  "\u2581\u7ea6\u4f1a\u5927\u4f5c\u6218": 6792,
  "\u2581\u6307": 6793,
  "\u2581\u8d75": 6794,
  "\u4e00\u5ff5": 6795,
  "\u4e4b\u8eaf": 6796,
  "\u518d\u7231": 6797,
  "\u53cc\u91cd": 6798,
  "\u547c\u5524": 6799,
  "\u54e5\u4eec": 6800,
  "\u5973\u661f": 6801,
  "\u5982\u679c": 6802,
  "\u5df4\u638c": 6803,
  "\u60a3\u8005": 6804,
  "\u6211\u8ddf": 6805,
  "\u6307\u6559": 6806,
  "\u6b66\u5b66": 6807,
  "\u767e\u5c81": 6808,
  "\u798f\u59bb": 6809,
  "\u89e3\u6790": 6810,
  "\u2581\u6240\u4ee5": 6811,
  "\u2581\u6df7\u4e71": 6812,
  "\u2581\u9006\u8f6c": 6813,
  "\u4e0d\u4e00\u822c": 6814,
  "\u5723\u9a91\u58eb": 6815,
  "\u5df1\u4e4b\u89c1": 6816,
  "\u5f00\u542f\u4e86": 6817,
  "mega": 6818,
  "\u2581\u6297\u65e5\u4e4b": 6819,
  "\u5f00\u5c40\u5c31\u88ab": 6820,
  "\u6709\u4ebf\u70b9\u5f3a": 6821,
  "\u67ef\u5b66\u4e16\u754c": 6822,
  "\u2581\u5fc6": 6823,
  "\u2581\u79d8": 6824,
  "\u4f60\u53bb": 6825,
  "\u4f60\u8fd9": 6826,
  "\u4fdd\u536b": 6827,
  "\u57fa\u53cb": 6828,
  "\u5927\u5ac2": 6829,
  "\u5996\u5e08": 6830,
  "\u5c04\u624b": 6831,
  "\u5e74\u5c11": 6832,
  "\u6211\u4e8e": 6833,
  "\u6211\u8fd9": 6834,
  "\u624b\u672f": 6835,
  "\u631a\u7231": 6836,
  "\u672a\u592e": 6837,
  "\u6781\u81f4": 6838,
  "\u7075\u5ba0": 6839,
  "\u7231\u610f": 6840,
  "\u7267\u573a": 6841,
  "\u738b\u5e9c": 6842,
  "\u7684\u91ce": 6843,
  "\u7cbe\u5f69": 6844,
  "\u9644\u4f53": 6845,
  "\u989c\u503c": 6846,
  "\u2581\u7206\u7b11": 6847,
  "\u2581\u72ec\u5ba0": 6848,
  "\u2581\u793e\u755c": 6849,
  "\u4e4b\u540e\u6211": 6850,
  "\u4e5f\u53ef\u4ee5": 6851,
  "\u5c0f\u519c\u5973": 6852,
  "\u6210\u5927\u4f6c": 6853,
  "\u65f6\u7a7a\u7684": 6854,
  "\u2581\u53e4\u7a7f\u4eca": 6855,
  "\u2581\u7cfb\u7edf\u4e4b": 6856,
  "\u5973\u88c5\u5927\u4f6c": 6857,
  "\u5f00\u5c40\u5951\u7ea6": 6858,
  "\u8270\u96be\u6c42\u751f": 6859,
  "\u2581\u5929\u4e0b\u7b2c\u4e00": 6860,
  "\u8ffd\u592b\u706b\u846c\u573a": 6861,
  "66": 6862,
  "\u2581\u6551": 6863,
  "\u2581\u8dd1": 6864,
  "\u4e4b\u6b7b": 6865,
  "\u4e4b\u767d": 6866,
  "\u4f60\u5f53": 6867,
  "\u5708\u517b": 6868,
  "\u5979\u5374": 6869,
  "\u5f00\u95e8": 6870,
  "\u6ce8\u610f": 6871,
  "\u6ee1\u6ee1": 6872,
  "\u7167\u6837": 6873,
  "\u72c2\u9f99": 6874,
  "\u732e\u7ed9": 6875,
  "\u7531\u6211": 6876,
  "\u795e\u4f53": 6877,
  "\u79d1\u666e": 6878,
  "\u7a3b\u59bb": 6879,
  "\u7b52\u6728": 6880,
  "\u8111\u53f6": 6881,
  "\u8bf4\u4e66": 6882,
  "\u8c28\u614e": 6883,
  "\u8db3\u575b": 6884,
  "\u8f90\u5c04": 6885,
  "\u9ed1\u591c": 6886,
  "500": 6887,
  "\u2581\u4e0d\u77e5": 6888,
  "\u2581\u6551\u4e16": 6889,
  "\u2581\u690d\u7269": 6890,
  "\u2581\u84dd\u8272": 6891,
  "\u2581\u9ed1\u9053": 6892,
  "\u4e2d\u4e16\u7eaa": 6893,
  "\u4ed9\u5b50\u4eec": 6894,
  "\u2581\u6597\u7834\u4e4b": 6895,
  "\u2581\u661f\u9645\u4e4b": 6896,
  "\u5728\u5a31\u4e50\u5708": 6897,
  "\u5e73\u51e1\u751f\u6d3b": 6898,
  "\u2581\u80d6": 6899,
  "\u4e0d\u8001": 6900,
  "\u5143\u5a74": 6901,
  "\u5148\u5929": 6902,
  "\u5356\u840c": 6903,
  "\u5927\u519b": 6904,
  "\u5c38\u4eba": 6905,
  "\u6478\u91d1": 6906,
  "\u68a6\u89c1": 6907,
  "\u7384\u95e8": 6908,
  "\u7535\u8111": 6909,
  "\u7fa4\u4e3b": 6910,
  "\u8001\u5988": 6911,
  "\u800c\u6218": 6912,
  "\u826f\u7f18": 6913,
  "\u82df\u547d": 6914,
  "\u88c1\u51b3": 6915,
  "\u8ff7\u4eba": 6916,
  "\u2581\u5815\u843d": 6917,
  "\u2581\u91d1\u724c": 6918,
  "\u4e09\u90e8\u66f2": 6919,
  "\u5ac1\u7cd9\u6c49": 6920,
  "\u5c0f\u53a8\u5a18": 6921,
  "\u5c31\u662f\u6211": 6922,
  "\u7684\u6210\u957f": 6923,
  "\u9006\u88ad\u4e86": 6924,
  "\u91cd\u751f\u8005": 6925,
  "\u2581\u91cd\u751f\u4ece": 6926,
  "\u2581\u5f00\u5c40\u53ec\u5524": 6927,
  "\u2581\u6211\u5728\u539f\u795e": 6928,
  "\u2581\u9ad8\u624b\u4e0b\u5c71": 6929,
  "\u2581\u590d": 6930,
  "\u2581\u5bc6": 6931,
  "\u2581\u5f85": 6932,
  "\u2581\u8d1d": 6933,
  "\u4e09\u5929": 6934,
  "\u4e0d\u5f52": 6935,
  "\u4ed9\u4f20": 6936,
  "\u4f60\u53c8": 6937,
  "\u4fe1\u6761": 6938,
  "\u5168\u606f": 6939,
  "\u540e\u4ed6": 6940,
  "\u63a2\u79d8": 6941,
  "\u65e0\u826f": 6942,
  "\u65e5\u5411": 6943,
  "\u6bd4\u4e4c": 6944,
  "\u7537\u56e2": 6945,
  "\u793e\u56e2": 6946,
  "\u88ab\u6293": 6947,
  "\u960e\u7f57": 6948,
  "\u9634\u5f71": 6949,
  "\u96e8\u6d69": 6950,
  "\u9a97\u6211": 6951,
  "npc": 6952,
  "\u2581\u4faf\u5e9c": 6953,
  "\u2581\u5927\u53d4": 6954,
  "\u2581\u5e08\u59b9": 6955,
  "\u2581\u6211\u4e43": 6956,
  "\u5c0f\u5976\u72d7": 6957,
  "\u5e26\u5168\u5bb6": 6958,
  "\u638c\u5fc3\u5ba0": 6959,
  "\u7684\u90fd\u5e02": 6960,
  "\u771f\u6b63\u7684": 6961,
  "\u2581\u604b\u7231\u8111": 6962,
  "\u2581\u5168\u6c11\u7a7f\u8d8a": 6963,
  "\u2581\u6570\u7801\u5b9d\u8d1d": 6964,
  "\u2581\u5173\u4e8e\u6211\u6210\u4e3a": 6965,
  "\u2581\u6211\u771f\u7684\u4e0d\u60f3": 6966,
  "\u4eca\u5929\u4e5f\u5728\u52aa\u529b": 6967,
  "17": 6968,
  "\u2581B": 6969,
  "\u4e16\u5f55": 6970,
  "\u4e2d\u534e": 6971,
  "\u4e4b\u7f18": 6972,
  "\u4e86\u89e3": 6973,
  "\u52fe\u5f15": 6974,
  "\u5361\u5e08": 6975,
  "\u53d1\u660e": 6976,
  "\u542c\u8bdd": 6977,
  "\u591a\u5c11": 6978,
  "\u6392\u961f": 6979,
  "\u672c\u4e8b": 6980,
  "\u767e\u79d1": 6981,
  "\u7948\u613f": 6982,
  "\u8001\u5934": 6983,
  "\u8868\u59b9": 6984,
  "\u8c01\u5bb6": 6985,
  "\u904d\u5e03": 6986,
  "\u2581\u4e5d\u9f99": 6987,
  "\u2581\u5192\u9669": 6988,
  "\u2581\u5c11\u7237": 6989,
  "\u2581\u653e\u5f00": 6990,
  "\u2581\u6e21\u52ab": 6991,
  "\u2581\u7eff\u8335": 6992,
  "\u2581\u8fdc\u53e4": 6993,
  "\u540e\u6210\u4e86": 6994,
  "\u5c31\u65e0\u654c": 6995,
  "\u5f00\u5c40\u8ba9": 6996,
  "\u653e\u8086\u5ba0": 6997,
  "\u8718\u86db\u4fa0": 6998,
  "\u2581\u76d7\u5893\u4e4b": 6999,
  "\u2581\u795e\u8c6a\u4ece": 7000,
  "\u2581\u957f\u516c\u4e3b": 7001,
  "\u6392\u7403\u5c11\u5e74": 7002,
  "\u2581\u91cd\u751f\u4e4b\u540e": 7003,
  "\u8c6a\u95e8\u7ee7\u627f\u4eba": 7004,
  "\u2581\u5168\u804c\u6cd5\u5e08\u4e4b": 7005,
  "\u2581\u6211\u7684\u4e16\u754c\u4e4b": 7006,
  "\u2581\u76ae": 7007,
  "\u4e07\u8c61": 7008,
  "\u4e13\u5ba0": 7009,
  "\u4e4b\u521d": 7010,
  "\u5148\u950b": 7011,
  "\u51b7\u8273": 7012,
  "\u53bb\u5427": 7013,
  "\u5404\u8def": 7014,
  "\u5408\u4f53": 7015,
  "\u57ce\u5821": 7016,
  "\u5a74\u513f": 7017,
  "\u601d\u7ef4": 7018,
  "\u6211\u9001": 7019,
  "\u626e\u732a": 7020,
  "\u62a4\u536b": 7021,
  "\u6389\u4e0b": 7022,
  "\u6570\u5b66": 7023,
  "\u6709\u4e00": 7024,
  "\u6b63\u6d3e": 7025,
  "\u7236\u7687": 7026,
  "\u72c2\u5175": 7027,
  "\u77f3\u5934": 7028,
  "\u795e\u754c": 7029,
  "\u8680\u9aa8": 7030,
  "\u8d8a\u591a": 7031,
  "\u91cd\u94f8": 7032,
  "\u9646\u603b": 7033,
  "\u96f7\u68ee": 7034,
  "\u9b54\u5f55": 7035,
  "\u2581\u4eba\u65cf": 7036,
  "\u2581\u5149\u660e": 7037,
  "\u2581\u5973\u738b": 7038,
  "\u2581\u5e78\u8fd0": 7039,
  "\u2581\u5fcd\u754c": 7040,
  "\u2581\u8c01\u5bb6": 7041,
  "\u2581\u9ed1\u591c": 7042,
  "\u5e78\u5b58\u8005": 7043,
  "\u6211\u6015\u8c01": 7044,
  "\u628a\u6211\u5f53": 7045,
  "\u5728\u4e00\u8d77\u4e86": 7046,
  "\u5f00\u5c40\u8fce\u5a36": 7047,
  "\u6211\u771f\u4e0d\u60f3": 7048,
  "\u6ca1\u6709\u95ee\u9898": 7049,
  "\u2581\u539f\u6765\u6211\u662f": 7050,
  "\u2581\u79e6\u65f6\u660e\u6708": 7051,
  "\u2581\u55b5": 7052,
  "\u2581\u971c": 7053,
  "\u2581\u9b45": 7054,
  "\u4e4b\u6e90": 7055,
  "\u514b\u661f": 7056,
  "\u540d\u8457": 7057,
  "\u5527\u5527": 7058,
  "\u5927\u7f57": 7059,
  "\u592b\u5987": 7060,
  "\u5e1d\u5c11": 7061,
  "\u7535\u89c6": 7062,
  "\u753b\u5e08": 7063,
  "\u7684\u5251": 7064,
  "\u76d1\u63a7": 7065,
  "\u793c\u7269": 7066,
  "\u98a0\u5012": 7067,
  "\u2581\u6076\u5f79": 7068,
  "\u2581\u6211\u6765": 7069,
  "\u2581\u8bfb\u5fc3": 7070,
  "\u4e94\u767e\u5e74": 7071,
  "\u5c0f\u4f5c\u7cbe": 7072,
  "\u5f53\u8001\u5e08": 7073,
  "\u6211\u4e00\u4eba": 7074,
  "\u6211\u53ea\u597d": 7075,
  "\u2581\u5973\u5c0a\u4e4b": 7076,
  "\u2581\u5973\u795e\u7684": 7077,
  "\u2581\u9ed1\u79d1\u6280": 7078,
  "\u5343\u4ebf\u7269\u8d44": 7079,
  "\u6700\u540e\u4e00\u4e2a": 7080,
  "\u9ad8\u6b66\u4e16\u754c": 7081,
  "\u2581\u4eba\u5728\u6d77\u8d3c": 7082,
  "\u2581\u5168\u804c\u9ad8\u624b": 7083,
  "\u2581\u609f\u6027\u9006\u5929": 7084,
  "\u2581\u7504\u5b1b\u4f20\u4e4b": 7085,
  "\u2581\u5ba0\u7269\u5c0f\u7cbe\u7075\u4e4b": 7086,
  "\u2581\u5230": 7087,
  "\u2581\u5618": 7088,
  "\u2581\u6c14": 7089,
  "\u4fee\u6b63": 7090,
  "\u53cc\u5b9d": 7091,
  "\u591f\u4e86": 7092,
  "\u5b66\u795e": 7093,
  "\u5d29\u584c": 7094,
  "\u5f88\u96be": 7095,
  "\u6211\u5148": 7096,
  "\u7b7e\u8ba2": 7097,
  "\u7b97\u8ba1": 7098,
  "\u8d74\u6b7b": 7099,
  "\u9080\u8bf7": 7100,
  "\u95f4\u7684": 7101,
  "\u2581\u57ce\u5e02": 7102,
  "\u2581\u5931\u53bb": 7103,
  "\u2581\u6570\u636e": 7104,
  "\u4eba\u5f00\u59cb": 7105,
  "\u540e\u6210\u4e3a": 7106,
  "\u5f00\u59cb\u4e86": 7107,
  "\u6a2a\u7740\u8d70": 7108,
  "\u771f\u5c11\u7237": 7109,
  "\u7eb8\u7247\u4eba": 7110,
  "\u2581\u4fee\u4ed9\u4e4b": 7111,
  "\u91cd\u751f\u5f52\u6765": 7112,
  "\u2581\u5f00\u5c40\u4e00\u4e2a": 7113,
  "\u2581\u5434": 7114,
  "\u2581\u5f15": 7115,
  "\u2581\u6000": 7116,
  "\u2581\u8d4c": 7117,
  "\u4eba\u7406": 7118,
  "\u4f9b\u5e94": 7119,
  "\u5403\u8089": 7120,
  "\u554a\u554a": 7121,
  "\u5929\u4ef7": 7122,
  "\u5f53\u4e0a": 7123,
  "\u6309\u6469": 7124,
  "\u6700\u4f73": 7125,
  "\u6df1\u5c71": 7126,
  "\u770b\u770b": 7127,
  "\u7efc\u6b66": 7128,
  "\u8840\u8272": 7129,
  "\u8bd5\u56fe": 7130,
  "\u2581\u7b2c\u4e03": 7131,
  "\u2581\u968f\u673a": 7132,
  "\u6253\u5929\u4e0b": 7133,
  "\u8ba4\u771f\u7684": 7134,
  "\u2581\u4fee\u771f\u754c": 7135,
  "\u2581\u5927\u5e08\u5144": 7136,
  "\u2581\u7a7f\u8d8a\u4ece": 7137,
  "\u4e16\u754c\u7b2c\u4e00": 7138,
  "\u5f00\u5c40\u5956\u52b1": 7139,
  "\u65e0\u9650\u4e4b\u65c5": 7140,
  "\u6df7\u5403\u7b49\u6b7b": 7141,
  "\u738b\u8005\u8363\u8000": 7142,
  "\u2581\u7cfb\u7edf\u8ba9\u6211": 7143,
  "\u6211\u771f\u7684\u4e0d\u662f": 7144,
  "\u7684\u4e07\u754c\u4e4b\u65c5": 7145,
  "\u7684\u60a0\u95f2\u751f\u6d3b": 7146,
  "\u7a7f\u8d8a\u5230\u5f02\u4e16\u754c": 7147,
  "\u4e5f\u5728": 7148,
  "\u5343\u91cc": 7149,
  "\u543e\u4e3a": 7150,
  "\u5723\u5149": 7151,
  "\u592a\u7a7a": 7152,
  "\u5947\u5f02": 7153,
  "\u5b7d\u5f92": 7154,
  "\u601d\u8003": 7155,
  "\u603b\u522b": 7156,
  "\u6843\u6e90": 7157,
  "\u6b66\u529b": 7158,
  "\u6e05\u9192": 7159,
  "\u73a9\u7b11": 7160,
  "\u7684\u4e09": 7161,
  "\u867d\u7136": 7162,
  "\u258119": 7163,
  "\u2581\u4fee\u884c": 7164,
  "\u2581\u602a\u517d": 7165,
  "\u2581\u8d85\u8d8a": 7166,
  "\u2581\u963f\u5c14": 7167,
  "\u2581\u9b54\u7269": 7168,
  "\u4e16\u754c\u4e2d": 7169,
  "\u505a\u8001\u5a46": 7170,
  "\u5080\u5121\u5e08": 7171,
  "\u540e\u6211\u9760": 7172,
  "\u5927\u9646\u7684": 7173,
  "\u5bf9\u4e0d\u8d77": 7174,
  "\u638c\u63a7\u8005": 7175,
  "\u95ef\u5f02\u754c": 7176,
  "\u2581\u660e\u660e\u662f": 7177,
  "\u2581\u9b54\u6cd5\u5e08": 7178,
  "\u4eba\u5de5\u667a\u80fd": 7179,
  "\u8352\u5c9b\u6c42\u751f": 7180,
  "\u2581\u7a7f\u4e66\u53cd\u6d3e": 7181,
  "\u5f02\u4e16\u754c\u4e4b\u65c5": 7182,
  "21": 7183,
  "\u2581\u52ab": 7184,
  "\u2581\u8bfb": 7185,
  "\u5c31\u4e1a": 7186,
  "\u5e74\u8f7b": 7187,
  "\u5e97\u957f": 7188,
  "\u6355\u5feb": 7189,
  "\u6751\u533b": 7190,
  "\u7070\u70ec": 7191,
  "\u7834\u5c40": 7192,
  "\u957f\u59d0": 7193,
  "\u9c81\u4f0a": 7194,
  "\u2581\u4e00\u4ee3": 7195,
  "\u2581\u5a5a\u793c": 7196,
  "\u2581\u5e55\u540e": 7197,
  "\u2581\u6df7\u8ff9": 7198,
  "\u2581\u9053\u58eb": 7199,
  "\u2581\u9274\u5b9d": 7200,
  "\u2581\u9ec4\u660f": 7201,
  "\u5973\u795e\u7684": 7202,
  "\u7b2c\u4e00\u4eba": 7203,
  "\u2581\u4e0d\u60f3\u5f53": 7204,
  "\u6211\u7684\u4eba\u751f": 7205,
  "\u9b54\u738b\u5927\u4eba": 7206,
  "\u2581\u5b9d\u53ef\u68a6\u4e4b": 7207,
  "\u2581\u7a7f\u8d8a\u672b\u4e16": 7208,
  "\u2581\u8336": 7209,
  "\u2581\u95ed": 7210,
  "\u4e0e\u541b": 7211,
  "\u4ed9\u4e4b": 7212,
  "\u521b\u610f": 7213,
  "\u533b\u795e": 7214,
  "\u53cd\u590d": 7215,
  "\u591a\u62c9": 7216,
  "\u5927\u8111": 7217,
  "\u5b58\u6d3b": 7218,
  "\u5c31\u7b97": 7219,
  "\u5c71\u8d3c": 7220,
  "\u6446\u8131": 7221,
  "\u738b\u5973": 7222,
  "\u795e\u7687": 7223,
  "\u8001\u6731": 7224,
  "\u8715\u53d8": 7225,
  "\u8ba1\u7b97": 7226,
  "\u8ba4\u9519": 7227,
  "\u9274\u5b9a": 7228,
  "\u96be\u4e3a": 7229,
  "\u9f99\u9a91": 7230,
  "sss": 7231,
  "\u2581\u5e8f\u5217": 7232,
  "\u2581\u897f\u65b9": 7233,
  "\u2581\u8fd9\u53ea": 7234,
[...]
